7e342b30012b
3f1737732421
1025371b3577
1d2c7a234052
0e1c3c681559
7b1845394062
20113547245f
261a0c15603a
324d2b675633
771d2a0f3040
237c2113226e
1d7470113b24
38237d1e1d34
35446a5a5656
79186f134114
550e1a667431
1e637b5c7431

13767a18667f
3d7b5f664a6d
7f1b6b141830
367f36237f4e
72374b7c7f11
1c7f132a7f2b
36351d263d7c
200c522c7f7f
467f0e52477c
7f1f117a7d34
7f102c3d791f
7a1e7f0e646f
347e1c387f7f
7b193a1b1e44
1d242c757f10
177f13662218
352b43342218

270e53291f1e
20796b312863
1b20713b5664
156b2c345751
1b1a78361a1f
35251d2c4a13
5f291d5a1c21
6f723c196d33
1c232214381f
44477f3a472b
19152f16211d
264225793a4f
521f22601e6c
0f4946154f49
2760366a3a3e
19177c5e181a
33562731181a

3b62784a7544
727f607e1855
311a791c7b7f
1b7f600f1e2f
52225f1d287c
6432313f2d25
2119735d187f
1c1420265d18
1976385f165e
361a184a2f60
393e242a4146
2e606a195a4c
1734647f2d1b
5d1c7f585e47
4f1b2653371a
5e3a17672e78
3b4e67312e78

1f7f7f197478
3c7e7f78247f
7f2b7f1b3f10
2c727c1e6741
7e463c7e7f19
247f1d165d15
282a1e154174
331c5e307473
3777153a427f
171c267e7f12
7f0c203a7f25
7f427a187f7f
197f557f7f7a
7619721a191e
2115147c7f15
207f186e291a
2d3b3a3f291a

1a606b106d34
5549762b2e58
2819383f5941
1b673a5b4814
4e1b345a2f19
0f3b18596d31
48131614221b
5d7d6a242e30
0d160e1e3627
7844773b2b12
2817442d2631
265311757225
3b3526051d4e
35184d191749
173937515339
282e7f731519
6f4879411519

182d6d241e70
3e61fd0d270a
31754c1c485c
380d5324612a
757b3676371a
5341247b716b
2f4925793241
101e3d41377e
640f1b1f7c61
53201b413654
252448722926
33152e1f4c3e
4971526b484c
644d4b36231b
1e1a392c351c
1d4f127f271b
705e373f271b

202530287c7f
375351362f09
4774300d5312
3a7f0c273317
457c5b483a13
703d2a27264f
27302638314a
200f53334d3f
7f761f3a4435
47151a276624
26135f7f3d12
3b2b4c143839
577c140c3a28
70251f151518
122521653c19
263f1533191a
66523e09191a

7d457c4f5113
6a6b302b140f
1e1c54266631
0f593d135a3b
351e32681733
3f1141091c6c
361a41791a59
0b197f124a7f
2d4f2e664d58
171f211e1074
237f53160a47
19586f146a21
0c1d417c0c24
7f777b574659
7e247a1b3721
520f167f4c3d
6974552d4c3d

44242b32ff16
4b0e50471319
1a1914144d52
123f7224194d
062077360d74
3a0d44414b27
481877161366
361d481c6853
292e552f304b
331b201c222a
1a38330efb4f
14614a1a402a
09184f31171d
3c0e70326c39
360e79405c17
7c281f16517e
4677465e517e

116646252d22
13735564113d
210b64355145
1a607f6e565c
601e5f732016
3e0d196d5c0d
6b1819781a28
28433d1a5d70
16541b5d6638
3d4d3d163259
1c1a661e1838
1030234c1d16
502e7b131660
5a525b455b19
1f5065433c7a
2b2035252f15
376d18212f15

4a5449686f1e
7f70373a1667
2f1a471b5b7f
1363111e4d5e
0c1a7f293135
583a7f3e0d66
332731231654
14164417242c
43077c7b4e56
4c1b23294221
2e23121e2458
360f4c163f3f
0a2714692a17
535062543d5c
3c107736171e
7d4717084e28
1c697c564e28

1f0a7221481b
297033611764
01154c7f5137
0a117f656226
1c127f750f15
73181f176f4e
45241d1d234a
4d2233236566
283512386829
107f661a7534
15141b271f28
11763c4e5f05
5a27434f0a3b
450f741e3424
127b14fa0d39
16273047190c
31633e27190c

40100b7d31fa
551f55fe1f09
101d371c4435
160c5526167f
10233073053e
541338155c46
3a1d3f67183d
1e2157207854
2a023d747846
1b1825136b6b
13370e212e72
142a76195e30
4c096621010c
2e0c722b7f73
361569371218
50241e177939
2b162a797939

12360d15793f
1f2365397f49
3a486e196b68
7c6a4b121723
7b30296d4f0c
24391d527468
0d7f19287f4f
22175a7f4144
463317517f6a
240c1e371b22
28161f427b26
40284e17755c
61384912292b
476e36053214
112237086428
143f19222113
1d216e452113

211155207d53
4829467d696c
454677127f6e
7e2134261625
614753064618
134e175a250f
28761e5b726e
22175f7c5872
5b5423262a7f
63172544611e
401a30447f2c
3e493e143939
7f435a763872
375536171c3b
10132121292e
1c31137f260d
69164335260d

7f1a7f344227
65026d522167
16202a20764c
1b116a263957
0c245a40134d
601e40454a1d
251136311c45
1b0f6919552b
2e522d312502
082430254d50
1f7764262b57
0f2129153d44
41195a061903
1a101a77684d
7b181e612b13
68271b2a6137
486529696137

0b7f7f10595f
13587c7c456d
7c167c116e12
36684f185755
6d3c487f7c19
6a6a0d517758
1e2a1b43306d
1b17692f117a
4d7d1157075a
441f1b69572e
791a753d5642
5651761c7d61
3c573e56767f
6a7f4a442d1f
1e2d50637e18
227f1a781f17
220d2f101f17

18434b274318
356e61092513
192019384529
151f4b35552a
1d163c7f1326
73211b244951
572e126f2d5b
7f7a191d3c06
1a301b283c42
57507f222b33
15211d0f2624
22343d7e7154
36121e2d1d2f
395b12246e32
1e4f3c583c4a
27217424170f
2c377b1e170f

4567334d1c31
7f52291a1364
122316113950
0e0e47122752
6e300f50017f
7f0c3d1c3f0e
321c7f701744
14145f1d383e
28613061485c
490b1b211d4b
113e122c2c48
067f1d1a1c1f
1a326c2d1766
483e27304d52
470d7f2b1a16
7618124f3879
1a65663e3879

167f7f217f7f
0c7f7f7f307f
7f307f212d3c
257f5f1f7f19
7f2e5c7f7f0f
227f2e192f7f
1e281d77507f
1819443b157f
4b7f255f507f
3119297a7f63
7f1820387a2b
7a357f0c7f7f
4c7f0f7f7f7f
7f24304c3e3d
1d165c7f7f13
287f117f210e
55515c24210e

28371d1a291f
326e43711b66
2a190e415550
155d385c7c42
570d775d2521
3d201e27690b
2a151a161e42
757f3d0f672c
174716052d20
7b4a7f251125
2e1b30152f12
1c136f7f0e1a
272c161e1826
130566192c28
145230265331
093b796d2513
69713e3d2513

0c327c1c767f
5b557a7f3643
517353207616
303e421b7f22
7f7d5c68480a
354d25400e0f
233f2948277f
3b1b46331057
5b5a224b0c2e
771f1c5b6651
4a1d7f79462f
672661193f7f
7a7f72354b31
73094b122133
101e2c7f5413
20590f720c18
482541390c18

2a5455257a7f
1e41387f3a11
4f7f2c174f1a
2f792a196b17
3c7a4d143c0b
0754201b4d4f
2c320f093358
211469360f52
67761a1f3340
27192a47351e
4c154d7c4e2b
4d2d6e1a7f63
4b7f713f4845
77253b45382f
1732237d5a20
1e4e115a201e
1c465224201e

772c77514f2d
67573f3c112b
372b591e2932
122d111e1624
24151b6b332f
593a4927176a
3225251f227d
08235d114226
387d475b5e75
601d2f447f73
2b7f221f2162
2568461c4749
25370f2b2574
544f0e574557
74183a7c3112
702d1a3c5e31
5b485f455e31

48263649441d
5e7f565f2c1b
171828173577
18196b253e1b
3a155317147f
3911315b6e1b
3a3a7d73175d
1f177c1e6b6a
3953563f216a
772225134d4a
013d181f1c67
094041123901
23186c5c2a6b
587469436e44
441d3543431e
7c290f72597f
0e6e7a43597f

1c2131221c2f
193c3b7a1b30
21107341271f
243a5e7f212b
461b1d6a2824
6220275d1842
7f1213782275
2d461e153f0c
315910482743
7f4b41387f62
2c1b11171b38
235425407a4c
57346579214e
50692046552f
113a3d38527a
142437273118
194438333118

3841266c4027
5a22234b0d52
13146a174c45
116b5119215a
3f174b561e30
491471224c57
1122433a170d
231d1b15393d
2a1d7b5c281b
5d0e18206118
161d141d1d7c
2458541b6d41
4c1b725c1f51
222a7c57777f
450e25273b13
7f1c1e32521f
11577f7f521f

253e771d4b16
24071e730d30
11174b7f765b
0d756d563062
180f56630b20
3113274e3c46
4c1e0c1520fe
51200f1b2800
26281e513467
1f7f64262040
17136215212d
1f2d2d4f3240
4b17625a0e68
065820461c52
207f095f3f41
2a23381d1a11
604874201a11

4040297f44f7
6f1c15040e41
0619f30f2861
19f67c1e197f
2d1b3d500630
3f2d380d7523
1e1c45400ef9
2211701c1e07
2c3a3b5e2a64
4c1b290b3513
0d393525137f
0758621afb42
460c16380135
005766255473
30223221ee17
331716407f2f
596624627f2f

13533b1d736d
402b7f7f6c33
4447401f1d37
7f7f45164943
3e3921755b0d
3c4413327a12
377c1d517f4e
1b1e177c6170
5d4d1c23464f
280d1e34210d
401a7e307f33
493739236647
643d7239373c
767a4f362543
21227d705324
2d531c7f2016
3b7110292016

1978231e7f5f
297f717f7738
524a7f1c6812
755d5a2a4745
7f4640224c29
3653107f7b7a
2c7926457439
211762773736
375d144f7028
481b2a434733
42166a587f2c
44614a1f7d58
7f4833374257
7d4659291a3d
161379655d1f
1b5910742119
6d6f602c2119

7d087f2f5318
2d41523a0c38
181b13176f52
1b2018184472
5c1e79180e53
40114d5f6e3e
381d3c312249
291967167f73
38512e627f52
161c15202970
18771b1b075d
174751183826
2d22680e0b51
287f195f3b45
76182d3af819
661e15506045
55397f586045

14686a126868
5a787275476d
681d78173d4c
256b791d6b48
723c64606814
50681933476d
2c2a125e3e72
35193b315772
456b18265672
412410616b33
72225d3e6132
61496b157272
46682e226878
6b323c0d2d1d
1b293775720c
2e7213682011
783d4a562011

193368213321
23725c67225e
1f256b405018
18283a402b14
3b256f38281a
4720215e1f4a
6a271a271938
697620127754
1c3022170f22
4a49751f3911
410c2922252a
374d4e776636
2d1d50312262
312f27165a39
1f4e43672d46
221d756b0f19
507d53150f19

3d447e4d3026
765f5d31220b
161afe207f50
173b5013124f
1c2e6f4e167f
3b08484c2014
211a77211920
211b561e2306
2e473c213a0e
57162d162b2c
0d414a233432
1f52371c5640
151e7f70192d
1a407e5f3959
4c203c59561b
740e12552f79
35645b5f2f79

107f7b2f7f7f
33747b73357d
7f3175211440
2878571d7830
7b45417f7f16
0f7f233d3a23
2b2f1f4f407b
2616303c137b
4078245b237b
6e1521727819
7b1555387231
723c78167b7b
147f2e3a7f75
785912435e32
1413307d7b12
2a7b1c7f2a11
594f282d2a11

256452251d1e
20791e511d2d
260f6b436368
157a585e2737
441e5e373113
682c271f601e
36101a431b47
767c751f115a
164b183b3750
2d3f77283562
1f1b30104128
233a697f1e62
1019153e1f1e
740658361e1d
2b3c384a273c
2c3c79222818
122d29432818

1a7f0c312d72
401c1c553137
3c792e1b1b5d
3b2a1818435f
427f145a410f
444a260f303b
245914242a4e
261e39300e14
7f6d25274566
1c1c2e4c5147
341b326e2f49
4a1911245730
7d7f5a1a451a
1f377c414a1d
1028563d6617
2635156f2711
556b2c1e2711

2236511f2673
3b3e1c73432b
2c7c48197f2d
38356f15424b
4c711555280d
4c1b2a576732
3e3e1a5d3b77
3d137b3b4144
7b6619296825
701a23226355
21197c7f232f
1f477c155b38
54761f3a4151
791d3a2f0d19
112972293625
301c0d5a1c22
41042e4e1c22

783f7947701f
37482a702a49
32127a1a1d62
11225917222a
251b7a222a3e
5a2f4c5f790c
2e223d701978
0a1a1d10263e
211e37302424
5d1d24291867
237f4f283162
311672146641
59192e392278
4f445a5c5165
732a45455217
6a3913254c31
2a3941354c31

3772752d6618
47342151175b
1a1e6710463f
1a743224006b
711e4375167f
5725380d4b6c
281d7f0a225f
281573224f4f
385945616220
150f1f3b7f2d
22335214384c
2a632b146f26
251f757f2208
3e7337201325
30157e2e3719
5f1d1330467b
0a084d53467b

134126242518
3157380e1a21
0f1c4d421172
1a17217f1461
20215b7c0f26
411316502468
742620231246
3c35431e250b
230c16197d17
7155511d1e79
192312191e2f
0b740d4c6222
282d7f17153c
57782a0f344b
16542624317f
1d1e2d0d2815
7f60633d2815

4c54706f4b1e
7146487f2155
33193d135124
19572d184d61
2310373f2f2c
1e347f497c06
211e491d2052
2b1c47164f3c
0e537f787a3b
3d0c1c477155
3c281c19266c
2b3708181a46
3c352d30251e
245b5659687e
4d095f472b1a
7f3e192c5b2e
567633725b2e

36255e1c471e
322231281a36
2911417f4d11
1466236d3023
6a1d557f1d1d
49262c3b6e52
27241714193d
4e327b1b4a63
0b3e1a425603
6e7f5c31353b
2c17732b1e30
1e48354c6a1a
2a2d437c1c2a
511d1b38171e
1c7f1776583f
2c1b392e150e
71604d27150e

3d18527f1a1f
5435176e1d5e
05160f1c6023
17024e2b374d
4f1c321f0d39
7419387c3b52
1323457f1749
2017021a4233
361e3b755d46
121b32071d6f
2838401f1279
094f0a14132d
701d52690f2b
411d7e587c7f
3b1e6472fc18
67180ffe7f31
404c2c7c7f31

1e764a2a4140
35337f087f7d
2f410025651a
7a624e120a36
7b2a19754a08
3c322b6f7f47
2870216b744e
160b41794f0a
387f1f355636
4518101f7011
2e2067447d23
2d725815294a
764c55762e43
782226494b22
24283c66662c
213d177e152d
175d4e3b152d

195d4c1b1e47
1670617f7d55
3a427f171e49
7d2875247a46
7f412a523c19
23410d7f6557
2b782a5f7f7a
2b195a7f7f0e
445619181c42
23191545505a
3a165e337730
3d741f1b3d59
72443b7c3612
5b5f4d3b2e3f
0b180f31441d
1f2d15461b1d
4a707b241b1d

6f5973305738
3f3d25631452
292511184173
185d551a5b2b
7f1915652561
4633580c522e
1812355d1347
19177f156b12
154524657475
281d22467f27
3a7f13093d74
41621714724d
4b254b2a3a3a
666b207f7f75
7323562f3424
5640185c6d3a
0a17607b6d3a

177d3a1d7d7d
2b6773714458
7d206a137c6a
397968177b1f
632e67727d0f
287d15592c37
1f231d193c60
18101234406e
3d7f0e487f6a
7f1c1e7c7246
681272447c19
75307f106f67
6a7d7f467d69
7f5359155233
1925746c6e16
2e72157d2211
644479402211

140e1f282924
4124240d232d
1e1b5d390639
173d41386e17
092372371528
402e1f1d7f69
6a26170b1a47
7f7f291f3e21
1b391f4c340d
644e7c15685a
351a4d1c2212
243e0671490e
300f1a43192d
4e2770103729
0f59476c0f39
2c147f171214
333020201214

3639323f3b2e
3e524f50162f
1a1a5d1e7371
1f170e1e464a
2e1e1624157d
422b2a066e4c
3210783d1552
22102b1b1018
4633427a6b10
2c2014164d3f
23425c271e49
116e39175418
321c4210211d
2f677a5c3b49
372224182b1f
672712303674
5b334d503674

177f7a277f7f
2c7f7f7f2b7b
7f277f150f5d
367f511f7f3c
7f35697f7f16
307f21103f42
38302a12417f
30136f2f637e
477f115b2c7f
1e1526787f72
7f1d25417820
78167f177f7e
2a7f273a7f7f
7f7261365635
1c0c387f7e22
157f167f1a12
614d34481a12

1e39221b762e
2c347f772022
2c11414d6e2c
1e4851741727
3c24637f3217
4b4214255b6b
57101368163c
7f751d18707f
1d600f162866
6f557f490f51
311c2517301f
375a3e743343
51391f0f2648
6f7156454453
1e593776662b
30477a251618
426b224c1618

125c5b236f73
574e7077194f
39756b127e11
3273231c7f5d
157f1c48370f
374320647269
2d4c22692b50
1f1c3f3a7c5a
7e38162c497b
45141f311410
29167f6f3425
2d4d371b5346
2766793e3a51
2271652e661f
1915454b1c1b
194714402a17
43273b4a2a17

227022256e5f
3d2f541a3b73
35787b114a54
2c7f0e170f15
23763e45330c
5b4b1a5d2d3a
3145135a386a
30181b3d7b1f
755c272a5e31
78172b384c6a
2f1c34743225
331a56147f3f
6f610c19377f
2e7f31482c53
0d19405c341e
362214282621
576516122621

773c7f50582b
3c540f302569
291a38162258
10452a1e3356
1d1d67381f32
42394a121a0b
342b27191318
181547143367
354830302e47
0f2114327071
2d7e17182c5b
256870164b42
501925622520
3133507f7e51
7f2661413b25
7d1d101e5a3d
672d7f5f5a3d

39745c3a6233
7a3d5b372b4b
201e2114177b
1b696c20513b
55164016237f
4227315e2463
27387f241750
24254631533e
1d4e53543b76
792034211c19
1e39370e465b
272a2f176330
21247a3b362b
635c37391d3e
2f1717424016
69221d454c76
323d762c4c76

1368101b2539
276462261f75
1a1d754c5d69
1b467a7a4624
2e2577591624
71281e437733
7b281514101f
2538311f3f4d
342d152d226a
245b4f264928
181e241f1d24
1b2b37477225
252a31201d59
01555f0d2d2e
194d1f2d657b
2d322e24261a
254e5425261a

416825521e17
67136523187f
11193e247673
1e5a60154732
50237f48152b
4f217b51551c
260b3d7d1524
2c1b15153b3f
3d1279783163
39201c1d7d31
2f2c6d281871
24227b1b4825
51221a1e1523
6e634e507f77
3f1826751c13
7f1a16264e31
337f787c4e31

305e630f2428
11726a70152d
2e141f7b2a4a
0f677c512f39
3317566f2d15
47212058192b
221d1b251e43
3d233c1a7131
1d1a2240473d
547964442744
1b1b43183b19
3c1c3f423633
4e3530522e26
584a7a265d17
1a751f25133c
2a343d301e12
515f6e261e12

41164b664d31
71330f28117d
2c2434117764
185b0d2a596b
60136a32303c
4030265c7f1a
1b2143241261
231b5423684f
1a673c7f1761
691f2f36775e
333425242e68
2e767a191557
651c4865263c
34394f294a59
411b7f7f3016
3b4819507739
4656257e7739

161146142f54
3473760f7f66
3e350f195c12
7f7777175336
6c4b52255311
2354207c7e4b
2b74155e7251
25170c783248
4269175e6838
20161642341c
2e1716346838
41143e1c5744
7f3e6677201b
755b444a1e1c
10213a12721e
1d3f1a1b161f
21076114161f

1b39261e574f
5b76615f7d67
303c381b326e
7f2d18264e62
59367f2d3e20
712924312379
3e7e2b35742d
2a1710711e69
472f26237050
25161e49183c
321424527c25
266c641b6042
7337227f387f
67653f346e3c
1515293c7f19
2f2516572e19
7f2a6c212e19

7f4f61353332
471728292813
251c501b5027
1b1d782a7530
6c263d6d2658
4b224c306557
2613327f1f4c
281a6f187975
18362c597f61
77282137244e
2c77301c2863
361d54182651
3b2c3f052475
57425a5c7f40
7f146952471c
6b1b24167237
1b417f607237

0f7f7f237474
327f7f7f357f
7f107f151a1f
3774301c7426
7f326b7f7f1c
1b7418551939
1a281b5d3f79
15126b2c1c7f
327e1214707f
192a157f7476
7f1b65357f1f
7f227f167f7a
59740b12747f
742d4e2d5a43
15332c7f7f0f
1b7f117c1a17
5d434f421a17

274627252817
27302b6c2515
131b1b44661f
196b7b356757
402d64682521
5f201528083a
4b180c431d55
70781a177670
164517261c5d
0f48661f586a
1d1e40263120
176d4d781850
1a1d776e165e
2e4623372a26
155c56504e3e
19267c0e2314
784f5b2f2314

437f3a59522a
5175187d2422
330f65233348
1d3a661b1d1d
0e190c423179
712f340e114f
34156f62153f
26127f1a7f52
1d7a383c787d
7b1b212d4c69
363c0a124568
3c6a4a194e36
162d205e297a
3c0f544f6374
4d1f0d173917
5c3a171d296f
54072164296f

117c792d7c7c
497c7c7c3179
7c327c1d397b
297c5b167c2e
7c3d37797c12
3d7c1d4f2875
3a1c14133f7c
1b15562e307c
527c1c1d2d7c
4d1e2c7c7c6a
7c1b4c3d7c1a
7c3a7c0e7c7c
2c7c657f7c7c
7c1932212f56
1616297c7c15
2f7c177c160f
5f4c523a160f

174f44164516
462e4870332a
210e173a3e0f
1b2b334e7644
491b3f601f14
501b17414133
390f0f1d0f6e
7e7f451a5555
2c59151d6a63
704c7e2a0e16
1d212d212f2f
1f30247f3955
3b1315431c18
4f7c43311f4e
1b320f176a36
1b1d7f5e120d
5d29734e120d

175d51274f7f
1c7f7f7f2f0b
3f7d1b23595c
4149321e684b
127b776e3911
2f2d2756407e
494b290a3049
28114032294c
7f72253c107f
581f284d6121
39217d7e3c38
4a2167205f40
277f79123d52
5d0a653e423f
1d2a44476a1e
2d3b0c671b16
7f7b561f1b16

2243282f5564
41545836401f
497618164160
26436f1a7443
31730c484416
4637155d6844
27421051357d
1d1b2b43187c
776a18263e4f
732023540f59
54154c6a4624
4232671d757d
436b353e4f7a
7d2f3b366034
1a237e667d1f
304716501e1c
406959251e1c

781e5a615d1c
683e684f1e14
172257216c39
0c2d511d7033
7e1c15241835
17373b704f61
461c2564125c
15107613367f
3f533d323446
34181d2d0b2b
357b531c0e4f
2a544c121d3f
17292b722927
6d505758613c
731a7617561e
552010445136
2d7477325136

2b204936193c
7f151c580b71
1d2045155471
1a7b421c4c64
7f0f0e391e78
682d37483d3b
18196a410d68
31164b1e212e
492d4d65673c
0c191e3e524d
2a274229213e
2d6f57183830
0a2b32252952
5c5037185770
2b1645342919
53271c754c7e
093e3a364c7e

15577613130f
2c7f062e1c27
1321433a6c2c
15fd27761726
4721761d1e22
3d2a153d3e57
7422170a1354
44355b1d3b7f
306f185d5338
7f4f53307f60
1b2115212214
101d373e6c1b
4d267f3e0f26
50140f41434d
15431f6c0c7f
261535702511
78462c302511

3c2c5d701c23
53033b11183c
202347194a7f
1e354d242f38
1b154b7d2335
241b7f5c1a25
1f1b38252620
2120371c3b1e
21067f2a6870
1914200a2474
12251a0e1978
114d49140623
15245341180b
2e6b2a2d4a7f
461516224712
7f081c3c4f2c
4e0e777f4f2c

2f2150202107
44252f071c0d
0d1239791422
084029686435
60137e590a1d
491526462c6e
261b1c4b1537
4e261f1a5a4a
3046255b2920
5d7f68144124
12115d2b0822
1514794a0b23
1f0a6d500d04
0e54562b5257
157f3716193e
3d1934612215
7f4746202215

435432733413
4c5316331712
16165b1f4b41
183c172d4d7f
30202e721633
24183f39720e
24214e64171c
200e3b105b1f
341a4251760f
33212a18113a
19434320057f
181b53154700
0f123039132f
4c3f2f53377f
3e215a361015
661b16567f2a
2f1c45557f2a

1846631e3c49
3e427743727b
40434b1d2150
7a473f18221d
33300e7a430e
444c1f411e54
3f7a1f3e741c
35180b7f705e
31531b2c7677
4f0f13446e31
311a6d367932
4526fe1f373e
52426e39236a
694329490b4d
162a376f6621
12331b4a1d1f
200a27451d1f

1d224e195647
405751776e6a
464e38245077
7b45311e3e36
423f78603f16
704c1d2f1f2b
41781d777469
2d1a2e786928
3462194f6e4f
761c1e57421d
401c40367f1c
394c59115a40
6a542a713844
443915311b1f
17203e2e3718
2d3a14381914
2b157f121914

7f407c30292c
56640e3c2928
341a431a301b
116d3d1f6855
082a3e272a57
574242516518
24103c0b205b
2512401b1376
177925527539
451c1d371e6a
3a765a1f2458
3450351f6d5e
691746462e1e
36357d714e41
7f134c286922
64331f525a30
195813475a30

0e7c792f7c7c
297c7c7c4279
7c167c135c2a
2e7c18157c2c
7c316f797c23
477c18405e36
2e32255e3b7c
1b1d4e28137c
2b7c15627f7c
231b237c7c47
7c163c277c27
7c727c187c7c
747c6f497c7c
7c41672b4d4a
1d1f547c7c13
227c1d7c1b1b
7655663d1b1b

1f3323312932
573e27471f4f
331550493c4c
25433934490b
4e256e262323
1b2e23395c66
6f22114c246a
6e704719434e
3f281f0c3041
7a5068491350
441729152e44
2941507a293f
14372c5d187b
142053353916
18531d324c46
36386d2a150e
22483634150e

2c5955403620
3a6808251870
17194b213a63
14394b1e1018
201718761f74
4732343a134d
40177f5a1a3e
28195d0f7f53
2c20330f6e72
4d14121b505b
1e402e142144
196e7c1c2b53
211e6e5f2743
3d5a353f735e
451f1027381c
72101d6d2f76
7b4c42552f76

187a7f347e7e
117f7f7f2e7e
77307f1e141d
317f58117f46
7f3d267a7708
467e181b137f
3a252120447f
17155a2c6e7f
617f1f63127f
2b1c23757f4b
7d115c49752d
75567f1c7f7f
527e1d257c7f
7f31244c6735
181c7f7f7f0f
2c7f147e0c0e
7b1526520c0e

182e3428411a
2f006f102042
15182040373e
1a452f651f62
1c23133e131c
260d28491f44
2b0d0e6214fd
7f7f7319741a
101718674046
423e7712244a
231b4c160a34
0a30447c1c46
3d35201d0216
696629223a0f
1d4856fc0b44
2f0a7f382115
702232332115

1f4f7223577f
4339603f351b
3d6e7a174f27
285f1c267b41
157f435a4911
223a1e605f35
4a412644266b
26137f332e32
7f621946316a
4b172d49423d
3e19767a312a
4c3817127a72
4479425d3d7f
29431a3a304d
1e165e185e27
1e530c7f181a
3d2a332e181a

23402f0f4856
222675253b12
307f1e174707
234941107211
3f770d361b1a
4f2e1b7f423a
173f21753757
1e130c3d726c
55631f1f6865
3e182625360d
221d4f7f2f22
28066a132c35
5b725335372f
4646013b491f
0e1b50115e2d
1d1b10761427
125f13441427

7a4c7c546c41
6c7f397c1a7b
39241521753f
12671e1f5a09
2a231b193b45
433854422a0e
131c2f391c4d
1e187a103234
48573a4c1916
461d1b347f7f
377f45292b60
316336131b32
6d265a4a247f
7109796c3823
7f2c312b571b
744818245637
162a14485637

425666286933
4c35745b244b
2a2b121e157f
1f212c224a11
211f2d6f207f
66313f187b35
1d327f371a6f
251312206149
4d4d4f334c28
6f1e21203010
2239662c3640
1e7f300d2f5d
3322527a216d
617b2c195663
3316353a1614
4d291b384875
16445c304875

1568202e2928
0c36484f207f
3c133c472e58
2532607b4759
7f195d104223
143a1c68280b
7a2814131231
453d56192572
0b5a0e5c307f
7f4c50495254
37184a083818
3857274e2b49
30327a793860
2e350a3b3d1e
163e00705c7f
2b45307f2516
216030272516

42273e592414
571a545b274b
161410165b77
2833052b2f5c
441230670d3a
50177f480131
3c28440f2541
121f4d25101b
1b3d7f2a3b1d
1e14201a7876
0f2c26202a68
104b310e3b2e
572004161822
32422e2e697b
451144074218
7b0e19074c34
400c2d774c34

23113d0b1f23
2f6d6572245f
2416757f2847
111d51583f3d
6619533b1027
2a1c28605c34
431f125f1667
4d20611c7177
284e1b5e0b19
0d7f72347a2a
2e195035273b
252c4d4a1d43
4b287d171535
436f194e540f
227f285d3643
201c2f5b1e0d
7f1e7f561e0d

4322366d1c34
664718141e59
0f1e731d3543
141d421f1c7e
3f265a7a2432
7f1e355d2e13
292e44231a4b
2312611d460d
223a367f2653
632536194d6a
1b2d57231a7e
11524a176f4f
562a69241c0a
187a604c1d4e
401b133f2a19
422a1f35762b
59165c7f762b

136f572f7f4b
477f6b317f75
3e333a1b512d
7f687e12424f
6d3848194c09
5a4d1a417172
2d7e106d7f29
1a155b784264
2e452262297c
201d202f243d
301a1a3d7f3a
563c691d6541
532b447f3555
3124691b6d3a
1b2279286b22
28361e7f2317
2337432d2317

1a292f1c323e
196c40387c71
2e4767182964
77187118104d
2550245e4317
424616500b26
307f1a477f1e
1d1753781649
4e311a410c0b
43151d444539
451971555b20
3d150a151a42
7f3f20343b3f
2b4d29234e46
17132f4e5222
195210681b24
4c31200f1b24

7f2d57314e30
5f320e681d11
1a164d237f7f
17467a1e1141
2c1d281e204d
3a124c59184f
2b19382e1515
1a1517123153
3555363d7954
69212d1c3526
317f52213149
167f7f161c2f
322b744b2535
7037477f774e
7b1f30211117
5b291d0b6e34
3156664d6e34

097f7f167f7f
2e757f754c7f
7f186d173f17
29751422753d
7f2f2a7f7f1e
167f16146143
212517263e7f
201f3e352b7e
4e75192c587f
722217777542
7f173543772f
772275127e7f
447f277a7f6d
75191b1d4025
13206f7f7e1a
187f177f241b
4d6c3117241b

191b07234808
4946546031fb
03223d300838
112037336055
2b1624720326
390f1162257e
721912271a11
627b7c1e3ff5
22071f636747
2f49720c2f2b
1b173c150036
0d2fe57f0aff
1b0a2a57040e
51096d3c3437
1b4d3f2e104e
2c1d7c0b1516
606768271516

2c2817595334
7110281c1376
1e1e78187d54
124d7d1d5b18
302f2411177d
781a335a4c58
181f765a1220
221257207336
4e3d4077522f
280c181b772d
1f4606212853
203a5c1e4836
261d2d691f61
1f2652682a77
5221236c3b0f
7d1c18ff327a
29487d58327a

2f7c7f247c7c
177f7f7f357f
7c337f286707
2b7e7f217e26
7f472a7c7c13
1b7c16176d0e
382b242c497f
251d0933517f
377e19480c7f
6924237a7e5e
7f1f1b377a28
7a447e237f7f
467c6f7b7c7f
7e2026495017
2d1a5d7f7f14
2e7f1d7c1b18
2e373b341b18

1d293921422b
20147f7f244a
2c1828484c2e
1851327a485a
3d1f2e222c1e
1b4a232a7f57
3312193d185c
7c77271e6451
0e50195d2e3b
14507d275c3e
30170f0c402f
303a7c7d7140
201c7414247f
45667c366018
194a66401d34
334076312717
484245462717

1457191e7e72
2a557d42396c
3b7f38185316
3c6825167f57
70767a734c0f
163f14215b5d
1c312a523164
2618603d7f4c
6c6a0f1a1d47
071c28412a51
3610786e4034
465026165d3a
7f7950394569
667f6211254e
16163e543e13
2a6016271612
7175772a1612

1d226f24787b
3a7c5435531c
3e7f601d7f34
2d2607203a0a
2d7f16082d11
1e3e277f4840
2b3d1e532b66
1a0d73465f57
73452a531317
7f2226420a6b
291b7f7f451e
372277192c4f
687f3929404d
64317f2a5b4e
1b161c255b16
1b3417401520
1a283f171520

6e534b443320
756611680b30
2c26331e4d47
117f26261e48
581e0d2f2431
721e494d233f
2b11250c185b
20137b1e7b7f
0d564f664951
091b0f2f277f
2e7f6326214a
2f7a6d1b5623
101f1453315d
51393f7e385c
7d275e4d5b15
703c116a5944
2f50637c5944

3d695046191e
733f7a201e2f
2e1b3f151f7f
294b431f5931
5f157f112f7f
6a30376e7063
19226c5d0e4d
231e5116283d
0d52511f1c59
7815203c3f4c
23335e192f4f
3b540a1e4b5d
351d3b0c2f54
756c6e345831
321a6f514817
73431e4b437f
4155452d437f

0e0a71291f11
464a4a011636
1c1a384e6625
2104517a1b4a
7c15262f1928
45161e1d2a12
7f241f391507
423736155b1b
13221b2a3865
454f49282a46
201a53251f29
263513450e2f
3c0e3c560161
243065262221
18466e5a007f
35242c6c2313
3977764f2313

4263646d391d
6e7951440e3c
1e0f76141e79
205b141b0a2a
4f1e4114232e
29207c666c23
37173b5b251c
251e0f166d66
364b7f514071
4f1b1b1d5f2e
1c2b552f144d
271a2a234946
53250c301b54
683d6e497f50
491407250e11
64171b3c5535
31176f7f5535

36396a1f7f44
3e6c7f7f2353
3e247f7f7177
0c4c73604d6b
7f1637403d1e
5e4a213f6661
2c1919192252
43253e1c517f
3d5115447d7f
267b7257493f
4b123e0e493c
44397f4c7f4d
4c3a496f322e
5d6b62412e2e
1c7e41437f3a
3a4a357c2c1a
4a0e35572c1a

40307b7f2d1a
6f274b241e7f
1a1d381a6e66
126f6f1e527f
1e21197f1d34
7f233a273958
2f10437f1212
211637154647
3852404c5806
4513252c492e
1638382c187f
2355141a644b
261549521115
012e423b7f69
391d32201c1c
5e0f19617f2e
565a48547f2e

1523712a6a34
556330196473
2e3e48257f56
7f5f4f0f2b53
5a3a7a48390d
6e3b216b5548
157f2e3a7469
191c38735462
2f3a27705743
7225242b403a
311830315f3e
3b5759164e3e
7a267a762558
442128173533
142b556e732b
233d1c782d1e
28533e1f2d1e

206021106140
23697216764a
34456e271249
745329287622
4c403e4d3828
2f241f7f7f4c
2d781b2b7949
0c11477f126c
6c721f211540
261220286054
34162b3b7f37
36077f143c55
4f503f6d3931
5e5c77482b26
13136562491d
2f420e722420
313f0e382420

78397334382d
1f3228252946
1f2158226b5c
190f7c192565
55175138264e
34354d184410
3d123e5d1a73
191b1615702f
314c3268466b
112427220e7f
2f7758262545
242b0d176743
20223b622572
20297f5c423a
78166b13451c
623d1810593a
170e0f76593a

166f691a6f6f
37726f6f5469
6f136f122b36
326f1a216f54
6f4711696f18
516f1620641a
132d260e3d6f
24192430176f
326f135c256f
2024186f6f2f
6f12563f6f27
6f196f126f6f
426f1e2e6f6f
6f175842502c
1e255c6f6f12
156f1c6f1e10
43755a531e10

1b2a412c3622
1c663966261b
1422093d5d60
1f11692d7535
38247f23091a
552425421a7b
512812611a33
7a7d15205365
3a49223c1738
1e40750f5703
16164e09233e
275a567d4918
50045e7f1b7f
667e40395f4d
184c634a5836
301a7a771b18
636073301b18

38187f502b10
7f3f4143205c
041e5b194c34
181134190f3a
fb2d2c64037e
790a3074080d
191f7f1f19ff
1f1743284414
18ff3d55264a
0b0d281e697a
074329322354
112b26132521
1c1e1d061a44
3a67574b6a40
5117383b581b
741b1a663f75
64563c313f75

1f777f267777
347a7a7e347f
77257e14575b
347b4b187b10
7a2c687f7709
377715701a7e
372b257f3a7a
2a1f123d187a
3a7b176a767a
49192a6f7b4e
7a16482f6f18
6f2d7b107a7a
55776a6e777e
7b3e0a190c2f
1a0c367a7a14
277a1777311f
437f403f311f

275323190f28
2b3a43462272
27161c412c1f
1d724f6a6e25
6d24674b2a1b
7423180d741f
2f141733204e
6c795a0f2230
25521940100a
1b467f2d395f
18182d1f122d
215f7579753e
2137124d1c4d
1c28092f6240
1f421f414f31
21227f342415
3a3f5b502415

1a1f3a1b6f6e
1c3254314255
357f441b727b
313315143640
48747474440d
554518213517
3942133a2e3a
2918793f2044
7d641e2a3f54
131a1d39772f
35227f77282b
421214100e26
676c4b0f4164
5c1e78365f20
131d7b3d271a
224010711313
19277b361313

255463103b7a
18534a6a3f47
3f797a0f2d4a
271e69146b22
3c7d2f41271b
3630203f6653
1f3512302c22
281726491127
6e231f22625d
131a223a522d
261266793125
46132c15376c
7a6b5f504449
783135531837
10237f5a291b
22511014191b
5f38423f191b

6e1e5b433b33
623d27371d7f
361d7f1e7f2a
13454c20701e
7f0b1d2f3c37
4d4b483d513e
35222c18205d
102177160f26
28393b476666
441b1d285127
3d7b2b2f3744
3a52670f3c2a
4c23630c2c54
7f6c2e75754e
742f70755919
582912475438
10110d4c5438

31554f45532c
75556b4c1956
2b164a2a6e58
174b48165945
561d5814317d
7f30444a4b05
262c7d171945
2f220828576d
0f23555e2660
271e313c4331
273548102e4c
1f2e2b1a2c52
172a7a2b2e1a
2f146b646e44
38187e684e1b
722e1e5c477f
47464c3f477f

181f561a1a0e
115960212a64
050d52393c59
25674e7f594d
6819482b0b27
5a001d31362b
7f14172f14f3
3e333b164050
4516182e616e
41504c100f7f
1a1e6f2d1539
0f2239566b43
1a1a592a0045
4e3f5c5d4051
253f1a291a7f
21fc2d381b12
5d2c31451b12

493d51605e12
413c7032232b
21114d1b133d
1d4c1820493a
471526471c3b
502e765a2146
291f3359172a
172449192c34
2e427c4b1b71
5f161226285e
16323b1d247a
233269173730
30150b2c1348
246a6b2e4373
56184d3f511e
6a201a065725
154f2a535725

216a6f112f1a
0b5c34191948
311c377f415c
14403b627248
6c1b437f262e
4b2d1c5e2359
2c1b12361c18
3e243e216872
3c251a63633a
487a5d26381a
34143e1a2a28
29113e374f29
1c264a1d1f1a
7b2f66380407
137f6f67173f
25413533180f
58360c3a180f

3d64767f0b2b
6a140d250d7c
201a091b216c
1e6d4a243651
421f1b3e293d
452939216e66
31124832162b
2e162d1c492c
3b1e3d425232
3b162d242130
24305019197f
2152281a2227
4c154c241d5f
2e0d623d457f
35227248512c
573821387f1e
227f3f667f1e

126373286556
425b29487246
573c291f1d1f
7277520e3137
64250c3f4f0f
245f167f3a7d
2d76112f786e
1f177f7b7a3a
3b5323335744
6e18184a3d58
401a1e2a7326
564e44165a59
4e3a24552929
685c5f166310
18216b733627
26601b1c251d
7b4c6d34251d

1f522d1f7f62
43403b467733
654a3b23576c
7f3954234910
734b32256424
2e56194f3d62
29701c467c7f
162115740f26
647414232a64
3e1a2d5d4c18
55164d4e7f23
507a23223455
435f26346249
4b24260b4342
191a2d37621c
255d1e572f18
5c045b332f18

761936381f30
36492136205d
171913237f65
1832491b6c43
7f2060781d51
7f2f4e514b7f
460f314a194d
2d18061a583a
295c2d764447
0e2d2d1c5075
1f77232a3665
0f5c141b451f
7130151a2220
79214b766e51
7623320b4a1d
50231b276637
120c42606637

16787f187a7a
12747e743d7f
781b7415430f
3f704d1d7016
7e3f167c781c
497a0e407369
212b213c387e
3b1a2e2e487e
54721c4f787e
4c2a1a6e7031
7e133b326e1a
6e3e6e157e7e
687a40397a74
703c5a3d0b33
1e22547e7e0c
237e167a2519
39113c282519

1b10251f5a1d
16227537230f
1c2338467009
172b7a356726
1f2136181624
3f131f332e3e
42240e2d1a50
7f7f73207416
381e171b3521
4a4a7f2d7d3e
1c2029133d25
20071a79524f
3625300f2114
3d6324391147
1a5f0b354d4d
2b117d1c1d12
2b6f124f1d12

3d4b7f406929
7f181e1d105f
2d13341b3373
14397a10264a
5a2b68733076
2e3e3811446e
2d217f200b68
25107e15454e
1e573d3c2d21
5316133d1243
1f435d302346
2a3d7f197122
5521606f267f
311560456c41
4b1f446e3017
7a3b1824347f
5a4c275f347f

107e7c307e7e
3c7f7c7f3e7e
7e377f214d4a
317f4c197f38
7c463c7e7e0e
187e245d1e2e
10290f7c3e7c
231a2c3d647c
607f202d0c7c
331720757f2b
7c21493c7525
752f7f177c7c
437e23317e7f
7f60183e4e27
1c13747e7c17
267c147e2315
586778582315

1d1a1629461b
306c1157274a
1a1609406352
13213f565a5e
551b4d5b1e25
1827155c3a44
4d17180e1b1e
7f7d78217f14
2e300f241658
70447f354f55
2c196c1a1b35
230a18797046
221075780e24
045c3203451d
244268345c32
2f2a7332111b
59567337111b

105c2e2d4f7b
524326462924
487f51136632
3d5a7128512b
3968102d4d15
3d4325400e35
293d1c312e2f
261c1432507f
6a6d2257402a
341c203c2f6d
331f5b7f3838
5346181f7f47
7f7f25343b29
7f4b4722333e
191a7e3b6c28
1a470d7f1d24
673e17511d24

2b2621246569
38722b212e51
4d7726133a54
324028145830
28751062461e
683d20323357
343d1740303a
31161c3b7f63
6a741a5a737f
521919402c1d
3f1f73785824
564f6f124c7f
357e27314f4e
5858644c304d
101a274f771a
304e127b1c20
204128171c20

710b244b0c23
745c546d2469
1028541f5d2e
135c23263f67
662453301435
492450160c1e
32202b401246
21157f184111
0f0e3959422e
331f1b0c7f1e
2274171a176a
1051651e310d
5031717e0e66
3f4a7f427855
762c36623219
7f060f5e6533
702a7a716533

344d2a352e0d
7f6361312455
0f213416417b
1f185f20235d
3f2451140f7c
6f2938276810
3024752e1541
3a17561b181b
3516564f2924
221830366752
02311b233556
153cfc105345
472c726f1873
542271432e67
30183255331a
743219725a76
306a77645a76

1b4072182328
227f65361160
341327430d18
255e7f7f5b20
43182767372d
11301b421720
7f1a1a3d0c1d
203876161e7f
3963101e717b
284b48462a31
452130192a2e
2b1056467f30
160d53202e2c
5b133b3d1629
203d3374377e
2a3e2c631c16
1d216d1f1c16

38662e746d1c
5f0b48141a2b
221664185b43
18711e1e3561
120d53041937
78167f7e6161
452d41391d69
1f2050176b3c
11227e7f6c3f
2b181b292b48
2b234b111766
194d14204959
0d1950012128
69527f3e457f
48123678651b
7f1e1d455c28
43702a5b5c28

1a257b122918
342b3f2a1d1e
171c2f7f0466
0e374d602467
471b50791117
1c2c22102f3d
411a1659256c
3d1d191b497f
180d1c4b2e3f
207f511e7f50
2817262c291d
180841417536
4b227c761c62
553a46396237
1b7f4a0a1241
2e1c31491517
652c51221517

40610a7d0c25
7f666e4b176d
251750162358
17165b215b7f
151e147f2943
7f273b375f71
221f463e1c30
1b127c244e02
131d414e2725
5118292b2c4a
282d5c232a7f
25307517310b
351d7b20182f
4f024b393550
341d223c201e
3b2e18717535
714513407535

162d2b1d2850
4036232c722c
473e78132b13
7f5d4b14311d
7f2345234a14
6c3f201e6d5c
207f1e2e774d
1a21557f6179
352d150b5b2a
1e161138551e
3e141f3d691b
416b22221d4a
3a4c18243a7a
6f427f3d6742
1924694e5c25
283e1a542815
7c783d492815

130d2c1b504e
1c0e6c417f11
404050162047
77210320612c
163e0d344c1d
432e1c655142
3a74213a7f18
2119537e7816
436525384025
3418222f1971
30202b4c681c
3379501f3d55
7f500524334e
1b3a0d4e6c30
17176c085316
2048177c1510
252d42161510

7f1c7f416830
5b762d5e1f4c
2b23451e7160
14187f1c5738
141f722d1e58
39204e203b2b
34123c4c191d
251165146d54
404b2c665043
0d1723247f7f
2d7f63211f6f
2c7f5018732f
622d4e5a2a5e
656c41795764
7c1a731d5717
61201b0f753a
076e7f60753a

13707f1a7775
107e787f447f
76267f131502
287f491e7f55
7d3e645f7619
3876123f201a
2e311b434279
1a204a3b437f
6d7f105c7e77
1e231c6e7f50
751c713e6e34
73167b157f7f
2a753261757f
7b5952443f36
10350d777f11
19751c7c1c0f
58535a2d1c0f

201a14273d1d
313255492a56
10130a384252
1222482f6024
6e174d690d11
2f2e17235e1c
4c141a652a22
7a7f64184559
1b44153a1068
71457d333e1a
341665171c24
2b521d7f620b
151315621c3c
2808564a482d
1c5a1d38354d
26207e231d19
7c7d61421d19

3a371b561316
755a423b1b2b
1c176f1d4d7c
1351791f015a
35181c311174
7f1a325b3f61
310e73271f41
18163f210833
153c356f7f3e
49131e175a2b
234250102950
0e3f151a5120
472329571c42
6e2442367970
491b61071728
44161b3a327b
3a3e1847327b

254d35225a5a
305d4b56306e
452560231150
286175136122
60462059440e
5c541a2b412e
3d370a29445f
2317132e485a
55521f4f2462
1d2321555838
57227247593d
51154f154f58
29581f565851
665a484e4e54
20147f646510
2f4815481f15
705e182f1f15

244e23236234
212e1d5f1957
1e0e6046284c
163344643561
341f5b75211d
39301f743322
27080e341849
7a7353216b70
295c15637f6f
4b49791b4516
2b1b46272020
1e275f7e2426
1e2c5611223e
6b1461302f3d
18435f361d34
20187d7f1b1d
734e252c1b1d

282b6d187f7f
23145f39313d
43786721473b
3c6b32204f53
087f69293d13
2844257f703a
2b39226b344b
2d1e0b352b7d
7f6420410c62
3c2c20446d34
2c205a7f2848
3b31321b2c68
5171604a4a7b
66493725734a
182025747f1a
2133104b2921
447a48662921

1e3420226a73
3d361c314367
2e794216105a
3c6237187144
5d72441a1b1a
211e2c574443
243118173956
2819763d3f65
723c20563527
290f233b0c27
2a1d517a3222
2b684d211956
6f7158453b41
7555622c5c1d
182548396221
3222121d2521
30762c192521

7f2a77491c29
46364f282362
1e200a181c44
18606129202c
7e1f260f204a
20343b121c1c
2b21323e204b
19160e190c5f
385a362b0960
421d262b625f
1c7720201974
1f7d7d0c502d
1f23321f1635
204a486f4a2d
7f225b1c5421
6a1e16566b3e
6220454d6b3e

2e402a4c3b36
5c1a3f71237f
321a3812253c
1b7f34206469
792a2976327f
7f39300e5c4d
3e2478241248
291e1d20337c
1e614e7f6f2f
1d1616347437
3c375323284b
2d4a4210772f
181a7f252b34
5b104d253c6d
39127a7f6117
78261d56487b
7a1c645f487b

152450284a21
4537564d0c40
0f180d410a5f
15606a7c3919
7d1c17731129
651114591c39
6f181355182f
4a376413445d
15601b306f74
4852532c6c6e
241410231833
1e682c522c27
14202e5c0f6c
685573153841
204e4d5a207f
191230411918
635452471918

44317f5e260d
74303a340b5e
1e172c135a50
1933351d4b4e
5d1b643d232f
721c7918345c
1e27444a1351
25154d1f266f
16107d6c454b
761524342d79
3b3125122c5d
255a54112b1f
50312f21242b
424f462b7062
4d192f6e5015
7f26134e5b28
736940595b28

31355819452d
40482b481639
2c166178155a
0b764f653068
261f7d74380f
2a392161185d
3216192c1772
4e275d1a6475
415d1b671074
58765e4a6169
351354173620
411d64393831
37405839267a
503963245317
207f3f7b354c
1a452f321f0f
5c2d0e151f0f

483c7c7f1d2a
4c11263b1a45
2b18541b735b
153f5520647f
57205e5e333e
3d343c334a5c
331b4c21156f
3b15761e7952
344c4357493a
481c2d267a7b
3135262b2d7f
297f5615532b
22325b152c14
337f3835596a
342229623518
523b16277732
1726437f7732

1c2e5f212542
37245a017f36
38371a1d2340
7e6d720f662f
2a2f5d584613
472c1c5a3350
3c7f1b537f3b
18137d6d0b62
37451e536f36
481419212a1d
23196c427214
3445271b684a
7f372316276b
36607d286139
0f23123f4021
373c16641c1c
3c4f2f121c1c

1d084b1f6f34
342e5f12793f
26372c194454
7453302c2d25
344714602a29
2c17136e6707
307a28377529
1d1c5a7c483b
4b1d1f2d6d2f
381d173e3c23
2d1361367526
283f74163318
483372402919
726a23176e4b
1410710c6d1b
1c2a166f1c22
2a6f4e0f1c22

6a30662d0a21
266afc6d1e1a
07206920401e
1a3f29196048
5c2970790b4f
601c45574b07
161d31772536
2b202116334c
2856294e2a0f
6c1e201e5e7f
2072111d036f
1c546b191111
1c2649131458
04326f6b5a2f
7f1349301c17
5f281a495746
6c5543575746

157c7b297976
3d6f7c77476a
7c197a17601c
3272271b7540
713d427b7c15
1b791e581868
34262747406c
261833354176
457a104e7473
5823126d7d19
741c16376e29
6c6a6d147f77
2f7947467879
7d6e42156755
1b203a6c7c10
347d15752f12
462f3d412f12

214a47246327
383449591a60
26195443205f
17603b407f2c
201c1163231b
4931156e3e23
652e0b471a4b
6f7620233b38
1e4e123f2b67
3e4a74267810
2113480e222f
22437b7f355e
31312e20247e
6f3b75204519
1d564e374d42
15377c151813
2f3d56151813

3d2a5f562e0c
76535f371a48
041e3917427f
195a3a164212
19147a27057e
51073414313d
21187a62290b
2f0e66142113
203a375f47fa
731121061759
0b362f291d3e
0615561d4e25
1d0956460557
423a593b6b33
4f1b75f91313
6118135f377e
095f6725377e

205f6d346d6b
44736e703273
5f2570247464
2b7941196d1a
6e474e6e5f11
616b1b2c4865
353e144f3a6e
262367337a6c
636d185a3f70
4b1830656d35
7a112645652d
652f67227072
4f6b20297762
6d3f761a1642
192075626c10
2b6a1f691d1b
441371201d1b

2b0a1a234f13
37175f1a2439
23110b3e4159
1e187f582d1f
360b6c761a17
1b36136b4a21
401c11701f21
7f7b18186550
131619685429
414377213329
211a54191b22
132b6f74261f
3f1d2e24192a
417f3f351240
27483f134431
232b7e12251b
46653a18251b

1b6a1c193b7a
0c59741e3850
337f351a5e3a
342f3c1c4330
7c7715194210
194126265d55
21501f223050
21154b3a6e1f
71411d6a4343
79211b345e5a
3e137a7f382b
45476e196e51
6a7f5a6a3b54
377f574c5d2f
1a220c405118
194d102d2715
4d141a1d2715

1d385c1e3b69
2b06311d2f05
317f3f1a6e43
31324f1a4513
4d7e44263517
16382015241c
1b43162f3969
23167b363b15
61622d297854
2119214a332a
3f127f674128
3b5245165135
2a665f4b3c40
776920323846
122028625b1e
35321857171c
5f601b34171c

7f2a6a3e2728
5376451e1e7f
23187c20261f
1223202b0b34
181a1a5d1d37
1a2d492c1e6a
461e30781837
151d7f137662
391c3f7f4252
191c12232d4e
1d74141f2770
2921390f2a59
3f2721061b58
4a5b5f7f2b3c
7f261b662919
67350c6b6532
4e71235e6532

426d7f396533
7b3c5e4a284c
2d1e5b0f753f
1d68402b773d
7c1855172576
563e3c187c3e
2a2478561a6a
2f1a1725251a
314157273813
07161f215326
23391f192641
2d50121a2232
2223776e2454
4642783a1b65
31137f704f20
5d3917204b79
384a764a4b79

044f29263f1f
3c67683f2725
2618253f556e
1e38727f2f52
790e233f2716
2a30186b735f
7f13130c1139
4f35740f2d69
3a1d13612f4b
734a563d2074
1f1b221c1d24
207660493c27
4a230a412f5a
29711f17101a
1d451f1d5272
182b2c6e2715
67695f2a2715

462d6c691931
465a2d7c155e
15111d243b7a
1c2061206039
7f212174203d
411f7f3a3f5c
36243c6e1f10
30193a1e4238
1f3d7f543e1b
0822161c3861
352d4d223379
2635121a6338
571b72541855
7f7a66464e4a
481e0e503619
7725142c6322
576c27486322

27f87e123b24
253239121b6c
261b297f446e
0e2574633455
2b121f752218
35191c396818
4f081b582611
4c256518546a
1a431b245437
1b7f60427f12
290f6b2d1230
2b2e3b450b1c
5013350c156b
172b550c3a2b
177f66245d36
3424316a1111
556412411111

444377724e31
5c29736b1123
19105512597a
164653356050
2c165062162c
7e13357a6365
312b44751213
1d1b451f311f
2e5b40747f3a
301829115f7f
2d39222e257f
22785f207723
4f182f551f44
51605f347f7e
40177e140f20
502d176b7e22
0f7f1d607e22

1e3251144443
2a1c383e7a76
4742701b6f1a
7f7f36141652
753a7245570c
724820341822
387e167f7e7f
1b210f783948
3760193c5a21
1416114e4431
351f4242763a
4d2c39197c57
51475b163656
7f1e4928241c
16242f2f2128
2f361d7e1c1c
551b21371c1c

2260670d473e
432f36467950
3a400a196b36
72722c23321a
1946784e402a
2641107e2451
437f26357669
220c2c711151
4f6611260ffe
511f2a321934
35171d417022
2a5939144e48
7245561b3b67
3e166514114c
151134412b1d
2c4d11590f23
706714270f23

7d3748392e28
3c68361b2368
1f0e2d1d2725
1e09251c537f
591e6f211757
541646642368
2a13382b1553
131e321d3543
2e522a30601a
251e1c202b54
107f34202e5d
2c582b246224
4b160e26185e
305c397e2050
78194e164517
48112d546f3a
745b2d6d6f3a

157b781f7b7b
397b7b7b4878
7b277b1c1328
3c7b55287b25
7b3229527b17
5e7b1a436943
343a1a48447b
341b5f305a7b
4e7b0c29247b
7f1c177b7b44
7b192a3a7b21
7b6c7b197b7b
777b225a7b7b
7b6c06340b23
1b197f7b7b0d
197b1c7b1a1e
53354c2d1a1e

212b5d324539
2b7f4a47191e
2615543e1567
204144317f27
711d22662423
252a21080713
5729084a1b2a
717f7f1f1d5b
121e19071529
38407a327f4c
301b610e2a20
321f36752537
2e3f1d613135
25305e54702c
1a544f626341
4231771e140e
5b665835140e

4828704b4515
7f7f222b0b33
0b2134197265
11534c130b4f
062b2d18087f
5e2928604967
4e0e7925183c
201210171d39
1d162e297935
19161d225c79
1839181d0b49
125d631b5d40
501d17210f52
2b64565b7c69
471c7f1a0a16
7c241e6a317a
2b1a432e317a

277f7f297f7f
2d7f7f7f3b7f
7f2b7f1a266d
297f721c7f15
7f39367f7f08
657f254d126d
2f26181e3a7f
12196e29307f
667f1d6a067f
11161b7f7f26
7f155d3d7f36
7f367f197f7f
517f547f7f7f
7f2c09404922
1a0d4e7f7f19
287f197f1d19
7f461f261d19

1b025720340c
3b3d6630283b
140dfa421954
14fb456b441b
442753251021
6a1e18585444
53131e201d33
7b7f3f1e1662
195112382225
4e4e7c264364
0d113c171d17
0c5e0a7f3825
3a112c670c4f
1f227f424c35
224c6440053d
2a087f221518
7f463c0b1518

167f4c1c5c7f
427f63643236
4d7079103d46
4b7f1a267442
7f7d16565116
534e1a18317f
244e2612327f
2d193c45745e
6e4218407d5f
4c1b2046534e
3c207f764c31
4f6a451c7f66
777f763e3c7f
7f72342d4e30
232b6e77520f
0e571171190e
23213b2c190e

25702b206e73
173f2e763d7f
377646145b27
2e69481f5720
3170235f3519
6d312230490a
38341d193061
2f13543c637f
41231a233452
7f11114b4e69
3e1e5d695233
382e750f512f
7164592f485d
7f106a435844
1423527f6f20
19351541251e
4d6c6224251e

7f62723b1231
54184a68177f
2518441b4921
167a66296324
101b16282e35
542c39122752
411a2d391751
132339137f5a
332f3f167e60
6217132a487d
217f501a2059
251956162f53
52203f6b2622
762b517f6e4e
7f1f6247661d
5b3a15355934
394429375934

3432183b7f3f
4373573e1639
26192d1b1d57
195b33122723
32217d2e2b7c
53223b1e126a
191f7a5b0b7c
1b1c721d1e7f
3e6f543d297a
332122245e6f
2a30560f295e
241e73221f5a
383e39462464
7f4b7c4d6033
3c1a2a6f5f19
622a204f6678
60361c456678

0b313b25441d
14594c211606
0f1b604b6d47
1f2a6e7f444e
731a185c1b20
3e2d254b506a
7f19204b1b1e
4a30470c792c
0813162857ff
24564c1c4076
1d150b191431
0d0f26471517
0a1d30761168
250e661f3834
1e4743134f7f
1c2b2b5f1f19
753a2b471f19

4d452964362c
3c6a7a491e74
231852134f48
1b52171f3026
761e6e7f2a2d
5922796f1022
3e294d58225e
2818471e6a44
202f7a1e6256
741a1a312e27
371f5c1d304a
3366211a0f47
3f161b712268
133677457d72
491d2a436516
7f1d1659542c
6c35784e542c

20597b235a28
2a1f5f711848
1b117376145e
18152c5c565e
56136f611726
58321c5c3c7f
3824142b1f21
48226d195349
14491b67187b
21796e2b6e27
2317501e2231
196f7f412528
281e317f1e62
282c46472315
0c744132474c
28253c4e1f16
7f6e6c4a1f16

3f1f2b7e2902
5b254d4b272b
221614145e69
1b1e22241542
60202c7f173a
260a3610740b
221a3b7f1222
1a196c1772f9
3e11347f58fa
22152d196557
293d41290c7f
29616b171541
59201f230949
56293043647e
3e1e60631013
3a2418fb7f36
6b4a277f7f36

1452241c7652
2e4e6d1c7f74
2f4a272a7068
7a383a1b4b0b
673a27453a12
09331c1c6c0f
297821447f35
25127f7f1e16
462d180a4276
6f2426457529
3b1960487620
425f40154b4d
653322253646
3b2139195a2a
1c257f5d3328
232f1b571e13
2f794d411e13

162a1631485e
5649652b7f7f
44327f1b1e31
7b6e2822244b
7a3c327c4937
4c5912552e4e
26751f2f7d7f
1918147f7b1f
5b6e1d5b2935
3e181558191e
451d4c4c7f1f
4754271c535f
6d2c73643e6e
57633233632a
12104e7f7e1e
304b0f7f2517
271b783a2517

7d005d3e2115
601778422970
151a641d735c
1214251f344b
0d1b64460d4a
63134b697f10
18103221145d
3c18241a5b72
2b473753460c
4b271a15457f
2a7d1f281063
194c7b1a0120
4e266c54192e
06533a7f7f4c
7f147f552d14
751d2164772d
736e797f772d

11777c1e7777
1f797779467c
771b790f6c4d
3879451e7943
773b2d7c7725
34771f7f703e
232512193f77
18122f341877
3e7914237377
2f1e1a72791d
77165c4c7222
722279117777
4f77136e7779
79544114363f
211f5b777713
3f771577181a
386c3c3b181a

2b4143226b22
3a7578721f2f
300f38475a1f
184d5f3f2d3f
6819483e2b1b
304424252122
471a1e1f2261
7d7b61144e6c
28181b492a1d
5a5c7c4b3217
42133e154030
36214e7c3d30
0e32216d2f70
49126317234b
184d0e4f7248
2d3075651c15
784e3b101c15

4c2f6a4e6020
5d712c24203a
161a52176860
11557f183c35
3a24682e1c7c
1b1d3766076d
3f147f351433
191858162642
1c1a383d4f22
7f1516243325
16384a222c32
26586b161116
49304c162717
69141f361c64
53206e784916
712a1719317f
6a25475b317f

1b6b6c2d6963
38716f6d2f69
6c326d167257
2a64281e6a15
713f18606c0d
3f63175d097d
1a3517714971
29194d2f5170
4b601e437f6f
2515176c6a17
711154456c13
6c5e6c196771
36660f7b6064
611f60501b3e
1414286e6c1b
1b7118691712
316e50171712

16665f213725
23657a7e1f2c
301d494d5a0f
1d4a24535321
211c751c411f
3c2f14722e2f
53151a2a146e
7f7f10256d1b
39440f620e1a
4e547c2e442c
3815741e2f35
2b58477f7d33
3b1a695c252c
295a6e254a28
1a4f13432c34
1e387f482d1a
473b23312d1a

253576227f7f
352c4b4d2422
4b7d7f213979
3f59611d753b
447f352e5111
1b5f1d4d597f
274923542e5e
2f1b2f312d7f
7f3b323b3a42
4c2132424224
371a4d793b1c
53356d175c68
67727a355639
5b65493e5a44
1b2255377f1f
1c3117751818
3d527b341818

215b281a6e7f
525e62404737
3c7f6e20273e
3b39651d403c
7f7f6622311a
504e276b393e
2337141f3b69
0c172b44113b
7f6433427644
6f1f1c475a5d
301d477f5c2d
352b2d0c285e
477f1f3d4146
5b312434534b
1127447f5f21
31391448211f
647c250f211f

7f2f1f4e3126
54355b68211b
12216a224e0d
181d261a0e3e
3d2341232541
0d2b455d135a
2f153b1c1c38
121b2d102627
1c3a38407d4e
732318222239
147b0618186c
1b325313483d
1b255d461a04
1a1d797f6836
7c22106a3120
6027175b6236
581c0a4f6236

4019513c5314
77ff1b2f1421
0f1d410f6758
12407f243961
59175c572276
790d2f7b493e
2e13710f133c
251b50192773
26f34e232d38
5f1b2e0ef26d
103b4c291461
09505c16242b
4b197f230af2
613d6d5d3051
2a1c3b304a1d
69191b55577e
2a5c4038577e

12231d261d12
337f14451948
15114b3f643d
1e5f297f5d1a
1c1873601017
1e1714655542
702a11681b54
3a3c1f191b48
2c5e13676557
77483c2b2b5e
1a1211181635
111057433326
550d774b0910
445f2819653a
0c4679715b7d
2a242b632514
56444a132514

40415d497e1a
5e39516a1534
211c59183379
17272f267971
3a1242641c32
77207f3d440d
44203a511b1a
160e35172a22
27367f1c234d
62171c27302b
391e1c162e60
1e5b5c166a2a
3d205c782227
34567f5f6e7f
421006205217
63350f3b462c
566f4f62462c

205d62126020
227a3b4f0f3a
2218407b7729
102e44586657
23154661241a
572e241e2550
3413171e1e25
57243925270b
0f13195c247a
407e63425e5c
23126c191c3b
2e2e75383f2e
1f1b763e2562
4c0a6c4f2625
1d7b343c5045
253637791c13
595056171c13

456a167f6523
51326a620c7f
1e1a2e222c1c
0d4066327f7f
62297f64142f
76272d0d391b
12103a7f112c
261247144740
1f51452e6273
6e152d1a433c
284553321d70
217f401d562e
28287f53274d
67645237437f
2f161a312420
4f2a170a7f28
151d22587f28

1e042e216a39
282710457a40
2b3f7f247f2c
7f6d21126e2a
752e41422e0c
6f28267f7f1c
157f19717f18
31123e7c127f
41371644645f
56191522104d
1e154a39753d
3743611b3d2a
7e325a6b175e
4020492f283a
112313236125
1d3616402517
71576f3f2517

214069263451
204c707f7d78
40427f233d11
761b79265f20
7f3759624828
5553162d5a46
237e242e7c59
1d1a3f7f5c75
713612163d62
4a19173a3a1d
361328447935
40614a1d5256
7f4746373f7f
197752185d2d
13141c387f20
285d14351f15
49452f5d1f15

76497f395b1b
3c20504c2335
1f1d771e7f1e
1f2b261e314f
5f1b141f1d53
291c5c1b604e
312140551c19
1c1435191355
283f2c436b11
16212a247c62
2b7b3e1a3543
29503c106c58
4340274e1e6f
5e2236775447
7a196e305920
502218726b31
170c27646b31

0f7e7f127b7b
237573753c7f
7e1975124943
3971711b714b
7f4542737e1d
397b1b5d200d
382520493e7f
1b18202e7e7f
5b6519127573
7e1f0c7b7118
7f0d393f7b21
7b457116737f
337b13287b75
7163502c443d
0e28707f7f18
147f187b1e10
7f43342d1e10

174b6e2f7534
3a7a562d2a1e
25102f3b1831
1d4048337a3f
7a1d2b0f291b
3038223a562c
4b26181f227a
7d7f62261a3c
1f33215b4e6c
453e7c3f6b28
3a150e1e272e
38415a7a5335
1a391a50266d
65343c381464
1f4d5b69713f
2f257e7a1c18
06423e1e1c18

4042235e4524
5e4a1b211552
210c3f13344e
1b2d7f187b21
7b212e66277b
7f1b3846263a
41127f241316
2f19431d5b5f
1e253c5a6535
6d11282c5f4f
22444b371e38
1f2e78165549
511c326c324f
691541424e45
501f477f1923
5e2e1e7b367f
7c5b4071367f

177f7f1f7f7f
0a697f69347f
7f336a241054
24647f15640e
7f454a7e7f1a
257f2144151f
243b1a2a4d7f
1e156830377f
25641562557f
2a1f2469641c
7f1c292f6934
692064187f7f
2c7f4f527f6a
647d194c103e
1f23647f7f12
1e7f127f1417
772546131417

1e56282c4d2a
5729527f2439
34142b4e362d
1928296c4b2a
5a23317f2b1c
41331a334561
2e180b332472
7778531f5a7f
414013476754
124a7f2a4853
2d152f1d361d
2b377f7a243c
252e31683034
2f71530e5013
124818376234
2d3d7f5e1d15
74651a331d15

165f4f2d4676
3f7706492670
3b7f55182b59
372c79270a55
587f7f4d340e
3141282c5721
0d45242d3421
37165e427261
7a211f627f78
47282a364b11
24217f7a4142
3e1130211c4c
775d7f521970
464c31232c22
19263f272319
273b10261a1d
2a597f271a1d

24075334446a
44324a55361a
267b211c2b46
29566816311d
317f4b051517
71151d756118
45361e663713
3616323b5070
7f5b261b7737
771616192079
2119687f2138
28342c11144b
3b6b5d74284d
4b4d24165c4c
161e384a4b17
313811362324
583f2b522324

752126461f19
75212b64202d
20172a1b1637
0e64121b5145
0c2454172d44
662644143921
3c2136391a46
14202c195221
3e1f306a4b5c
381e1e2d2423
1f7c1823195b
15403b180d21
3c235365133a
1a0a4a6c7e4a
7f2850453e1a
742c18305b34
1f3840535b34

383513384524
7b401f231e6a
0e261a190c22
1c717523501c
581b53581575
411835485834
3c177b311a1d
26192f167e13
2f2153682936
7b1a330d4666
1d27651e2b50
0d360f125f19
401e7f151241
2b2f1f513b6b
31170d0a611f
5e1e1444457f
1c7f4f3c457f

133c63373624
1f4e0a211b24
1f120d3c4c49
18416e7d1e13
4e172e38221a
62182c511c32
7f1e1360193d
1f3d772c0d0b
14341d0a6921
2e473b38063e
1c104d1c2f2a
104478475c3f
5c137f121c42
6a2f2c480f2f
1d3d3407167f
3b2a2b242219
757f224b2219

4b444951581f
5f020c5f1e2c
1b1e1c17387f
14592121053b
6e1f557c1b3c
56157e115017
39173c29162b
2a167717612c
32247f564601
201428162024
1e2828240b6f
257f401c4824
24223c580533
070f6f72736c
4c194a16261d
7e1712144a28
441a30664a28

1b437f155f21
2f2c524a2262
2f10297f2529
105262554338
520c3e20361c
183a231c5b7f
391f224b1f4d
481f68176813
0c7014193746
1e7f64151227
191c671e432d
39757b39365f
5b1d727f283a
4261622e1f50
197f48385049
2f2a2d1c1d0a
34541f0c1d0a

40246b7f632a
6d4a56331a52
232969141453
18737625245b
622b7b452c4c
523632466f73
312147611a31
2a1426164e37
2f23437f4318
2912211c347b
372e2d2f117f
2a24250e133d
5b38314f3369
583c4c53524f
3d212424511c
5c27134e7d34
1b7c4d7f7d34

111c3b263c49
444331226f27
2b4466247b27
7d5048143e5f
5f336a4f470e
4c43225b2c7f
3973193c7e48
2c18737f3471
477b17547a40
66221e24051f
20207f377622
384c7a205e40
7c3773112d4e
7b6a75383e5d
15176f297b2d
1f2e19551322
240e78261322

1634411a4f43
31324a347a12
293d6a1a4844
69341925575a
4f4b4e602e18
422f14611b1a
257d1c1d7128
26194e6e312b
4a3d19646e3f
200e23353526
1f19234a6c2e
302115183354
2d2d775c2d64
6a7879204e43
170e2b745d28
393214352a21
404114462a21

785a56353330
602a7f602d73
3e1a7f182922
22335a164168
441e493f3f51
322f49725d2b
2a1645511a68
13134c2a1e5c
2e522a7c7f4e
5c1726445e46
4176492a3873
434e7f0c753a
3c2979433d24
755f1a53525c
7e147d665615
472f167f7337
4477366e7337

0a7f7f107f7f
1d7f7f7f2e7f
7f1a7f1a1d31
2b7f542c7f4b
7f38567f7f18
557f0b504929
3624190d477f
16166a2a6a7f
3b7f123c1e7f
6325177e7f56
7f173a347e1e
7e137f137f7f
3f7f197f7f7f
7f2c403c2a3e
1825517f7f10
177f157f2414
7f4c7f322414

1c2b1c273918
1725630a1867
1d1e443c322a
18457f355818
25243a77211b
6b1d1764487f
6e191846256a
7f752f22736b
28192118683a
515475353040
1a172a1e2b20
32353f7f5d13
1c2d3b66137d
30277c47331f
1157273b4d46
25327f231a17
7f4a5a2d1a17

344365553234
4a275239106d
291850193b30
186d41134915
7f227f3d3279
5f4534483058
331a7a5a1a48
281814146d67
0f264027647f
4f1b1f392a65
2d452e162648
216e2f234948
3e303a7a2f29
6b32482f6e3a
55187e7f1f17
7335167f377f
323d5773377f

27736b1c7373
3f7573733a6b
732b73223d71
297361177344
7338106b730a
3b73186a296f
2a321a393b73
1b173a306873
44731e265973
56222c737339
731947407327
737f73147373
507351637373
737f4f28792c
170f78737313
2f7323731f0f
3f3e3b541f0f

1a336425491a
1b270b142964
14104b423e76
1c4a1c6b526c
4d212a7f0b14
5819195e4b26
4e1414371e61
717478112c1d
2f43131d446b
3d417d205e4c
2021481b272a
1c68777f0819
202b4c1e1129
4e13720e3f39
1e4f3b113b36
24187e13201f
3d382720201f

16755c1b707a
474031513044
327a611d2a13
2d4b5c230c4e
26741c1b340e
295417494518
3b3d25472b48
15175f397b00
7b671f524070
4823224e5e57
431078793e1e
32440c1d4731
45514b1a472d
231b05495920
11251f603f1c
225e10011e12
1f074c2c1e12

206a1a194c7f
485a3f7f3762
3e795915776e
2a5b66115b13
3e7a7d614819
31592b17500d
3b3a13243f52
12193b466d4d
7047170e3d3e
7f18223e7952
341c7871432f
50565712534b
477f43494a78
551a0545240c
21155e3a7f24
2f3b14601615
6967501d1615

7f5b32551e26
4b7162251c21
1e1c6326574d
174471292d28
2b1a25462945
7d354d203e47
171e2f2e1d6f
1a1a1b0f2819
1f1f4227663d
751e2b1f4129
207a1321155c
202e240e7129
321a34052146
3020497a2564
7f2c481e4321
65400b554930
291123484930

32733e3c2723
71495733187f
2e184c1d0b43
1e50671f253e
2f1f6d533c75
6f34324e6f70
35207c391c37
211230202c71
433a49344f57
191a3f337f22
3535211f2b51
38692e20452e
4a417748372f
2340234d4572
351464784119
7b2c18604d7c
40656d464d7c

10285c1b2021
1a50522e0935
2b12653a4c67
1e15557f221a
7f1f21632d1d
2d1c1a354a6e
7f1a257c1033
3e3b411f7b15
162618275213
53504a305042
2d1640190e23
1a4a7a3f4f3e
34186f1f1911
37706a0e4d13
0e483313287f
241f315f301b
76517542301b

484b235d4428
6617281a2a7f
270d6c183036
247f121b6c20
251742572731
102b7e21293b
2d23316d1f5a
1a25451b5243
2e3e7f23583a
35181d2f301f
172e121b3864
3332091a2650
27297028264a
463c19277f5f
42161e66461d
7f381e705427
6364184b5427

246f4b173515
3431215f1b0d
221e247a4439
096076605b51
7c1b705d1f1b
443121184a15
3c1e145f1315
3526421e4940
2446182e7273
057f6d25791e
2c201c2e1e1f
24631f3d3b2d
092a51382228
24330c38192e
187f1f565849
2e273619240d
632d5a2a240d

42574b7d2733
75730c691631
2422731b777f
242e462d4d53
6d20625e2f33
673c44616846
341b437f193c
231417127f19
16293b7f7f12
461a1d3a4d6a
3b282d2b2a7f
2b627219746a
521f21062539
5f0b17227f7e
37126c3a4725
5434123c7f30
720821637f30

1e6b59237f3d
2a477f787f28
41451a236829
7f3d221c7332
7f212b685813
124e22215756
207f1c387c64
26194079256b
497216394e1f
721c1032135d
3b1f53397f1c
5067221d7d46
743631532e2c
15666513454b
1526542b6922
14571457191c
56613c21191c

0d2c21273e49
1f411e6d796c
4e361d1b5c31
7c7f0c1a5339
61420f515b1c
604b1a5e3039
277f24596d38
17281374487f
35741f285470
7f1b1558664e
541a5d3e6f3b
50274f1b2679
4252333d3d77
687226260d46
1f1273545512
26571c54140f
45723026140f

75357e3b1633
3f1d4b6a1f38
1a226d193172
201e6124707e
6c234e22125a
43234725203d
3215326b1231
2e2623185b3d
2022305c7b2d
45212d2b1c56
1c7d241d2f73
17237f18494d
1720107f1836
33316a7a7b3d
7a1a62264c1f
682327736e41
2f7f787e6e41

165961246a6a
196661633a74
6319651d531b
346a35136a64
642d5765631d
2c6a18183120
2d3a16123f64
20175c2e1963
316712134e65
45271c676a4b
641e4d336724
674d59186467
6a6a53126a66
6a645a351d41
1f1a2f676310
1d601a662b14
261e231d2b14

16370f284518
501e473b3262
1f1b3a455c37
1145192f7544
3b1832302220
0b3615267053
4b2623512256
5a797c1f652b
2024234a411a
454f713a6f34
16120f1a2026
3950227c403f
493174271d60
5b2b25181b25
164f2b471855
3024712a2118
512f23382118

304d44526535
7a677f41157f
36196c293420
125f73247740
751a7c21327f
73493c76316a
37127223173b
33152724276f
213544235626
60212d312719
3b3b5a2b3b4a
3f37161a254c
36305207433a
6b405b5f4f42
4b20786f7319
6d2e1e1f4279
49494c604279

186b751c6b6b
44726e6e3b75
6b2f6e1a4460
376b50166b26
6e3e4d726b14
4f6b175e0a4d
182f17333d6e
131d0830426e
406b1d271a6e
1e1e206b6b66
6e204a4b6b0d
6b416b176e6e
746b571f6b6e
6b7f68413c22
1616706e6e13
2c6e1a6b1d11
2d54223f1d11

171b4f28371c
20412a461e1c
1a17304a0124
1f0a446c255b
541d28282326
331522295754
33231a011308
7d75490d601b
241d113c6758
0e477d2c780f
131a5512131b
1a471778311b
502e5f050e15
2f276c38204d
164b4e132437
2e147a4b251c
1d3e382d251c

195458274f65
20344e553b1a
3c7b3c21187a
3b1b5b256a4f
287e4b273c17
66401c1f1133
4441211f3822
2e123f405e7d
6f51254c1841
1326232b295d
1a1d777d432e
3b415f203e48
447f3f7f2b5d
47283816363f
15261a2e2e21
1c360f5a1f24
496a2d2b1f24

284072255078
1a317b74377f
447d471f3d2d
2b784c1a2d33
707f120c3e18
654223180e73
313729573345
3b0e2a444f7f
684c1f65672a
4c1e24383264
471f7d766027
5c08390a573a
677f67094a1c
7f651d253121
121d167c641c
2b4e163a1622
1853081d1622

7a234d4a231f
6d2c2d272261
1a0d05187d29
164341253416
15234c371d46
081441410d49
1d31361d1f37
1c16761b645e
35303f542cf6
48141d0a2e64
167f4b163358
0e1b3515473b
121a640a0c25
6c75587f3243
7d1b3a57341a
7d0910625e42
0a100b445e42

403d52434aff
6d4c5e5121f3
f51b411d764d
10331e1f3657
16193538fb7d
5110367b7a0c
2a257b411649
2321192b5ded
190d56507634
161e2a192f4b
04311a2c1b5b
012c031f2ffc
111234750822
3c7e153d4e7d
3b1e7e2a1523
5c1e1a264a7f
0b57485c4a7f

132d661c0116
365d326b2b06
1b1a473f1e4c
1b18467e4451
381c4f151610
14211a564e2c
6d0811651c70
3936251a2c46
153d10475364
365134174953
221b4c111c35
0c7c62452e1e
272e6e3c1673
3a52223d3a2c
19407d37407d
221e2b6e1814
4f7f1d201814

466a605e601f
5c7979791779
312579176c5c
153c351d183a
4c0e2d4d2630
453a7f26194a
321249611243
161510171e68
24797f713650
3d17202e3734
24285b132f65
2834701a7960
343e72302b4e
7907484e7e4f
4b181c233a1c
79281479602d
183e6b61602d

206875193721
29233d541543
281e61757543
0c566255281f
5b1b4c4e281a
134016735d39
451f15551a6e
4b234f263a74
296d1608163c
507d643a143a
2b0f60212930
381a674b3638
141f6f0f2965
201f5a11411a
1b7d29702340
123c347d230c
48295543230c

472d197f6123
7f3462230f6e
1e1a51205838
142332366156
551c46362331
2d4137245920
271e4a7f1816
0f192b1c256f
342c337f312f
2f1623403a34
213d2724296c
2451501a633c
4f0a6e4b213d
4d2b414b6179
302a5f613c24
453c0e177f33
0f7f697f7f33

22153f237246
453a1a327077
3343151f404e
716444130a52
752f251e3f13
143b1e725a5c
1b6e1620735d
2a20246f212f
49491f1f0910
6c1321391d6a
2f19222d7a32
3f4640174a1a
2f20213c312c
5c167f2c1f0d
172e276e142e
113c22521c16
16722a2f1c16

19466f2a455a
11447f717a67
493d7f121776
7c795c124b2c
3335362e5d28
303b1c5f5576
367b1d287067
151725746428
587f18283859
2d1717466626
491748387f32
3b7f791c5651
49281c1c4d70
7f7f634d1f4e
0b15787f661e
1346112c1e15
4a304e271e15

