7e432c300e20
3f182c73242e
1125431b3577
1d217a233452
0e1c3c6b1659
7b1945394062
20113547245f
261a0c15603a
32422b675634
771d2a103140
227c2113176e
1c747111462f
38247d1e1c29
35446a5a5656
79186f083514
550f1a5b7431
1e637b5c7431

136d3818756d
3d7375754a73
701b6d141830
36703023754e
78374b207011
1c70132a7f2b
36351d263d73
200c522c7f2a
46750e524477
7f1f116d7034
70102c3d6d1f
6d1e780e7573
344e1c327070
70193a1b1e44
1d2426757510
177013782218
402b43342218

271253291b1b
207c6a2e285f
1c206d3b5664
15692c345351
1f1a78361b1f
35231d2c4a13
5f291d5a1c1d
6f723c196d3a
1c212214381f
44477f384b2b
18152f161e1d
27422c79374b
522322601d69
134946154f49
27603666363e
19157c61181a
33562731181a

3b5a6b4a5e30
727553651842
1d1a701c7b7f
1b73600f0a2f
46225f15147c
641c313f2d25
2119735d1871
1c1420265d0c
195d385f1646
361a18342360
243e242a2d46
1a605e194337
1728647f1807
4e1c7f585e47
4f1b263b231a
5e2417502e78
3b4e67312e78

1f7b21197b7b
3c797b7b247b
7b2b7b1b3f10
2c7b7c1e7b41
77463c7f7b19
247b1d165d17
282a1e15417b
331c5e307478
377b153a3c7b
171c267b2912
7b0c203a7b25
7b4279187b7b
1953557f7b7b
7b19721a191e
2115167b7b15
207b187a291a
3b3b3a3f291a

1a566b106b2a
55416c212e4d
12192d3f5941
1b5c3a5b4014
471b34571919
0f3118596d31
481316142211
5d7d6a242e29
0d0d0e1e3620
784477312412
1517442d1c31
10530a75681a
3b2e26050744
2e184d191749
173937474939
28247f691519
6f4879411519

182d6d242070
3e5b0b0f2718
3f75501c485c
38195324642a
6d7b3676451a
534f247b716b
2f492579324f
101e3d413776
641d1b1f7c65
53201b4d3654
312448723526
3f152e1f5a40
4971526b544e
584d4b36231b
1e1a392f371c
1d5d127f271b
705e373f271b

20103028766e
374e48292ffe
4174290d5312
3a770c271a17
407c5b483413
70472a27264f
273026383138
200f53334d3a
7f6b1f3a442d
47151a236124
23135f7f3a12
372b49141d35
577b140c3619
6b251f151518
122521622519
26391530191a
66523e09191a

7d4b7c4f5719
6a5f2e31140d
241c5a266631
0f5f3d13603b
291e32681d33
3f1741091c6c
361a41791a5f
0b197f124a72
2d552e664d5e
171f21241074
297f53161047
1f586f147027
0c17417c1222
72777b574659
7e247a213d21
5215167c4c3d
6974552d4c3d

44302b321320
4b1757501326
15191e144d52
124b7224264d
082077360874
3a1e44414b27
481877161373
361d481c6854
2938552f3054
331b202f192a
2c38330e074f
27614a1a4b3e
090f4f311129
420e70326c39
360e794a6817
7c3a1f22517e
4677465e517e

116746252f23
137f5966113f
190b6a355145
1a5f7f6e5b5c
6b1e5f7f1816
3e11196d5c0d
6b1819781a2c
28433d1a5d70
16561b5d6648
3d4d3d173a59
1d1a661e1938
11302b4c211a
502a7b131762
59525b455b19
1f506548407a
2b24351a2f15
396d18212f15

4a543f686820
7f723f44166b
201a3c1b5b7f
1370111e5c5e
0d1a7f1f2335
58347f3e0d66
33273123164d
14164417242d
43157c7b4e58
4c1b23234521
1f23121e2858
270f42164440
0a2a14691b24
585062543d5c
3c107739251e
7d3a170b4e28
1c697c564e28

1f146f215425
297f316b1764
0b154a7f5137
0a1b7f656226
2e127f721915
73221f176f52
45241d1d2354
4d2233236577
283f12386833
107f66247f34
1f141b272928
1b76454e5d0f
5a31434f1445
5b0f741e3424
127b18fa1739
16313053190c
35633e27190c

402a107d5d25
552e782d1f19
1f1d641c4435
162f5526457f
1f233078143e
542e38155c46
3a1d3f671853
1e2157207867
2a273d747771
1b1825227d6b
22370e213d72
232a7f197f53
4c1a66211c28
550c722b7f73
361569494418
50341e317939
2b162a797939

12350d157b3e
1f2964387f48
39486b196b68
7c684b121623
7f30296d4e0c
24381d527468
0d7f19287f4d
22175a7f414a
463217517f6b
240c1e361f22
29161f427826
3f284d17745b
613c4912282a
4a6e36053214
112237056328
143e19272113
1d216e452113

210f55207b51
4827447b696a
434675127f6e
7e1f34261425
5f4753064418
134c175a250f
28761e5b726c
22175f7c5870
5b5223262a7e
631725425f1e
3e1a30447d2c
3c493e143737
7f415a763670
355536171c3b
1013211f272e
1c2f137f260d
69164335260d

7f117f343f2a
65077261216c
13202520764c
1b166a263e57
0f245a34114d
601c40454a1d
251136311c43
1b0f6919552e
2e572d3125fb
082430235250
1a7764263057
0c212e15453d
411c5a061606
1f101a77684d
7b181e613013
68231b2f6137
486529696137

0b746e107474
134e74744574
721677116e12
367440187555
6e3c485a7419
6a740d517758
1e2a1b433074
1b17692f113d
4d7411570776
441f1b747f2e
741a753d7442
74516b1c7474
3c413e477474
747f4a442d1f
1e2d41757418
22721a711f17
260d2f101f17

18504b273d25
356e6e042523
262026384529
15154b354f2a
1d163c7f2026
732e1b244951
572e126f2d68
7f7a191d3c06
1a2a1b283c52
57507f2f2b33
22211d0f2724
2f343d7e7e60
36121e2d2a3c
395b12246e32
1e4f3c62494a
272e7434170f
2c377b1e170f

4560334d212c
7f5822171369
1f230f113950
0e0947122052
73300f500e7f
7f1d3d1c3f0e
321c7f701749
14145f1d3843
285c30614861
490b1b30164b
1e3e122c3148
137f1d1a1730
1a386c2d2461
4d3e27304d52
470d7f301516
762712543879
1a65663e3879

167635215e7c
0c365f64304f
69307f212d3c
2564491f5519
7f2e5c136a0f
226a2e192f7f
1e281d77505a
1819443b1567
4b5e255f506b
311929766a63
641820387c2b
7c357f0c5f60
4c530f7d646a
6424304c3e3d
1d164d556413
2861117f210e
5a515c24210e

2830161a2319
32683d6b1b60
231908415550
1557385c7642
510d77561e21
3d1a1e27690b
2a151a161e3c
757f3d0f6726
174116052d1a
7b4a7f1f0b25
271b30152912
1513687f0814
2726161e1120
0d0566192c28
145230204d31
093579672513
69713e3d2513

0c20691c5e77
5b3f6678362f
3f733f207616
302a421b7f22
7c7d5c59360a
353825400e0f
233f2948277b
3b1b46331044
5b46224b0c19
771f1c464f51
371d7f79312f
52264f19296d
7a6f7235381d
5d094b122133
101e2c794013
20470f5d0c18
482541390c18

2a465525677c
1e36287f3a05
417f1e174f1a
2f6b2a195d17
327a4d14300b
0747201b4d4f
2c320f093348
211469360f47
67661a1f332e
27192a3a311e
3f154d7c402b
3f2d6d1a7e51
4b7f713f3b35
68253b45382f
1732236b4a20
1e411149201e
1c465224201e

77196d51451c
67482b261119
302b491e2932
121a111e0324
15151b642c2f
59334927176a
3225251f2274
08235d114217
3866475b5e62
601d2f3d7873
277f221f0e62
1e683e1c3141
25290f2b1e61
424f0e574557
74183a662112
70261a275e31
5b485f455e31

481736493624
5e73454e2c26
21181c173577
181e6b25451b
3f1553171e7f
391d315b6e1b
3a3a7d731765
1f177c1e6b59
3958563f216a
7722251d404a
0c3d181f2367
15403e12400b
23216c5c1e66
5d7469436e44
441d3534481e
7c310f63597f
0e6e7a43597f

1c243122232f
193f437f1b35
25107641271f
243e5e7f282b
451b1d6a2c24
6224275d1842
7f1213782279
2d461e153f09
31611048273f
7f4b413b7b62
301b11171b38
26542b407f50
572d65792550
51692046552f
113a3d3e587a
142837273118
1e4438333118

3835266c3f2e
5a2b0b310d45
07145e174c45
115e5119135a
30174b561230
490871224c57
1122433a170c
231d1b153946
2a117b5c280f
5d0e18145d18
0a1d141d237c
1858521b5f34
4c19725c1359
322a7c57777f
450e25262113
7f101e45521f
11577f7f521f

25447f1d5210
240d1a6d0d30
1f17477f765b
0d6e6d562c62
1e0f566b1a20
3121274e3c46
4c1e0c15200c
51200f1b2806
26241e513465
1f7f64352440
28136215252d
2e2d354f314e
4b1d625a1c62
0a5820461c52
207f095d3b41
2a3138251a11
604874201a11

4060297f6518
6f3530230e5b
2a190f0f2861
19177c1e367f
441b3d502830
3f49380d7523
1e1c45400e19
2211701c1e22
2c563b5e2a7f
4c1b292f4313
31393525317f
2958681a1f62
461316382554
1a5766255473
302232400c17
3339165d7f2f
596624627f2f

13493b1d5b57
402b7b706c1f
46472d1f1d37
7f7f45163f43
3e3921755d0d
3c4613327a12
377c1d517f44
1b1e177c6164
5d4f1c234639
280d1e36150d
421a7e307a33
4b3739235c31
643d72392d3c
707a4f362543
21227d5a4924
2d471c7c2016
3b7110292016

196c211e7f50
297f657f772b
434a7f1c6812
75515a2a3b45
794640223d29
3643107f7b7a
2c792645742d
21176277372e
3752144f7021
481b2a343f33
34166a58772c
3561421f7148
7f403337324b
754659291a3d
16137959511f
1b49106b2119
6d6f602c2119

7d1b7f2f5421
2d4e66500c55
171b11176f52
1b3c18186072
6a1e79180d53
40194d5f6e3e
381d3c312250
291967167f74
38652e627f57
161c15273370
20771b1b105d
204753184923
2d1d680e146c
387f195f3b45
76182d4f1119
6626155a6045
55397f586045

147229127965
5a7779794778
771d6f173d4c
25776f1d7948
683c64527714
507719334773
2c2a125e3e78
35193b315757
45791826567a
412410727f33
77225d3e7532
754973157978
46492e187773
77323c0d2d1d
1b293379790c
2e7713732011
7f3d4a562011

193960214123
236f616c225e
2c256c405018
182c3a403414
36256f36351a
472d215e1f4b
6a271a271943
69762012774f
1c3122170f24
4a49752c3311
4b0c2922262a
444d50776641
2d1650313064
312f27165a39
1f4e44672c46
2227756c0f19
517d53150f19

3d64774d4626
766b79452217
221a1a207f50
174750131e4f
262e6f4e227f
3b14484c2014
211a77211936
211b561e2306
2e513c213a18
57162d22352c
19414a233432
2b52371c6c58
151e7f702539
26407e5f3959
4c203c635e1b
741a12552f79
35645b5f2f79

1077572f7a77
337f777a3579
773177211440
28694f1d7a30
7f4541577516
0f78233d3a2a
2b2f1f4f4079
2616303c1369
4071245b237b
6e1521775a19
761555387731
753c7f165977
14422e327678
785912435e32
14132f7a7a12
2a781c742a11
6d4f282d2a11

255e52251b0f
206b17491d23
230f68436368
1571585e2037
361e5e373013
6829271f601e
36101a431b48
767c751f114c
1645183b374c
2d3f77292962
1b1b30103428
203a657f145c
100e153e1d15
670658361e1d
2b3c383f203c
2c3979182818
122d29432818

1a7f0c313871
401b255e313d
4d79371b1b5d
3b321818495f
3c7f145a520f
445b260f303b
245914242a5c
261e39300e12
7f752527456f
1c1c2e5d5047
441b326e2e49
5b191024603f
7d7e5a1a561f
1d377c414a1d
1028563b6e17
2646156d2711
556b2c1e2711

2243511f357a
3b43287f4331
3b7c54197f2d
38406f154d4b
50711555340d
4c272a576732
3e3e1a5d3b7f
3d137b3b4149
7b6e19296830
701a232f6b55
2e197c7f272f
2c477c156744
547a1f3a4e5f
7d1d3a2f0d19
1129722d4225
30280d5e1c22
41042e4e1c22

783c7947691a
374e286c2a49
2912791a1d62
111f59171d2a
2b1b7a22233e
5a274c5f790c
2e223d70197f
0a1a1d102644
211f37302423
5d1d241e1867
1b7f4f283562
291671146439
591f2e391a7f
56445a5c5165
732a45434e17
6a2f13294c31
2a3941354c31

376b752d541c
472e1948175d
1e1e5f10463f
1a753224016b
711e43751a7f
5727380d4b6c
281d7f0a2262
281573224f47
385945616227
150f1f3b7e2d
223352143a4c
2e632b147125
2527757f1c0b
407337201325
30157e263819
5f1d132a467b
0a084d53467b

134126241918
315738021a21
171c4d421172
1a0b217f0861
20215b7c1726
411b16502468
742620231250
3c35431e250b
230016197d17
715551251e79
212312191e2f
13740d4c622a
282d7f171d3c
57782a0f344b
16542624317f
1d262d192815
7f60633d2815

4c4b6c6f4215
713d3f75214c
2a1934135124
194e2d184461
1a10373b262c
1e2b7f497c06
211e491d2049
2b1c47164f33
0e4a7f787a32
3d0c1c3e6855
33281c191d6c
22370018113d
3c2c2d301c15
1b5b5659687e
4d095f3d221a
7f3519235b2e
567633725b2e

362a5e1c4e1b
321f33171a36
2d11447f4d11
146a236d2b23
721d557f221d
492e2c3b6e52
27241714194a
4e327b1b4a6a
0b421a425604
6e7f5c2b2b3b
3017732b1e30
2248354c6a1d
2a23437c1e1a
561d1b38171e
1c7f1776503f
2c1f3933150e
71604d27150e

3d29507f282f
543c24791d6a
17161d1c6023
17114e2b464d
511c321f1f39
742a387c3b52
1323457f1755
2017021a4232
362c3b755d52
121b3216266f
3738401f2279
1b4f1414213b
702552692038
3e1d7e587c7f
3b1e647c0918
67270f0e7f31
404c2c7c7f31

1e5f4a2a4253
3533750a7f73
35411725651a
7a5a4e121b36
7b2a19755108
3c372b6f7f47
2870216b7450
160b41794f16
386d1f355622
451810227011
332067447c23
337258151e50
764c5576343d
7f2226494b22
24283c726a2c
2140177f152d
175d4e3b152d

1950491b1e47
16725c737d54
28427e171e49
7d1675246a46
7e412a4f3d19
232f0d7f6557
2b782a5f7f6c
2b195a7f7f0f
444a19181c35
231915334a5a
28165e337f30
2b741b1b314c
72383b7c2406
535f4d3b2e3f
0b180f3a381d
1f22154a1b1d
4a707b241b1d

6f4767304223
3f271d511441
1a2504184173
1850551a492b
731915651b61
4623580c522e
1812355d1335
19177f156b06
154024657472
281d22387f27
2b7f13092874
32620b146b39
4b144b2a2b28
506b207f7f75
732356261f24
5637184b6d3a
0a17607b6d3a

177f171d7a7f
2b2f7a7a447a
782072137c6a
397f63176e1f
262e67337a0f
287a15592c37
1f231d193c7a
18101234404a
3d7a0e487870
7f1c1e7f4f46
7f1272447f19
7f303e107a7a
6a3b7f417f7a
7b5359155233
19256f6e7a16
2e7815742211
6b4479402211

141b1f283730
412f311a233b
2b1b6b390639
174941387c17
122372372228
403a1f1d7f69
6a26170b1a55
7f7f291f3e29
1b461f4c341b
644e7c236f5a
411a4d1c2f12
313e1871571b
30161a432739
5a2770103729
0f59477b1c39
2c207f241214
333020201214

36382a3f3b2c
3e4c4d4b162e
1b1a5a1e7371
1f110e1e414a
2c1e161c177d
422c2a066e4c
3210783d1554
22102b1b1017
462e427a6b0f
2c20141f413f
24425c272549
1a6e2d175319
321a42102218
2a677a5c3b49
372224172a1f
6729122e3674
5b334d503674

176b0a27706b
2c7c70702b70
702772150f5d
366b511f713c
573569497016
307021103f44
38302a124170
30136f2f6362
4770115b2662
1e15266b6c72
6b1d25416b20
6b1651177070
2a4b273a6b70
487261365635
1c0c3a717022
157016751a12
614d34481a12

1e2f221b6523
2c3771642017
1a11244d6e2c
1e3f5174f927
4024637f2017
4b3014255b6b
571013681628
7f751d18707f
1d4f0f162853
6f557f3f0f51
261c2517271f
2d5a3e74212e
51391f0f1c35
677156454453
1e59375a522b
30367a211618
496b224c1618

125b5b236e72
574d6f76194f
39756a127e11
3272231c7f5d
157f1c48370f
374220647269
2d4c22692b4f
1f1c3f3a7c59
7e37162c497a
45141f301310
29167f6f3425
2d4d371b5245
2765793e3a4f
2171652e661f
1915454a1b1b
1947143f2a17
43273b4a2a17

226422256e5f
3d2348263b7f
35787b114a54
2c7f0e171b15
23763e45330c
5b3f1a5d2d3a
3145135a385e
30181b3d7b13
7568272a5e25
78172b2c406a
2f1c34743225
331a4a147f3f
6f5d0c19377f
227f31482c53
0d194050341e
362214282621
576516122621

77377f505125
3c540b2c2565
241a33162258
10422a1e2e56
1d1d67381a32
42344a121a0b
342b27191313
181547143367
354330302e43
0f21142d7071
287e1718255b
20687016463d
50192562201b
3133507f7e51
7f26613d3625
7d1810185a3d
672d7f5f5a3d

39675c3a5519
7a2f652d2b46
071e2a14177b
1b616c20513b
5f1640160a7f
420d315e2463
27387f24174f
242546315331
1d4753543b6f
792034081b19
0939370e455b
102a2317620f
21187a3b1f1a
625c37391d3e
2f17172e3c16
69091d374c76
323d762c4c76

13621c1b1b30
276e601d1f7f
1a1d744c5d69
1b447a7a3e24
382577591624
71281e437733
7b2815141021
2538311f3f57
342b152d226c
245b4f265328
181e241f1f24
1b2b43477025
253431201d59
0d555f0d2d2e
194d1f245d7b
2d302e24261a
254e5425261a

416c2552221a
67126b27187f
191943247673
1e5860155032
54237f481c2b
4f247b51551c
260b3d7d1527
2c1b15153b3e
3d1979783164
39201c207d31
372c6d281b71
2d22761b4727
51261a1e1d24
6c634e507f77
3f1826742113
7f21162a4e31
337f787c4e31

3055570f2a1d
117362681524
1a14167b2a4a
0f5e7c512739
321756701915
47192058192b
221d1b251e3a
3d233c1a7130
1d1222404737
5479643c2044
151b43182e19
341c49422d2b
4e223052261d
4a4a7a265d17
1a751f180c3c
2a2c3d251e12
555f6e261e12

41154b664b2d
71270b231178
29242d117764
18550d2a546b
53136a322b3c
402b265c7f1a
1b214324125d
231b54236844
1a623c7f1753
691f2f34735e
2f3425242868
2a7677190f50
651648652238
2c394f294a59
411b7f7f2b16
3b45194b7739
4656257e7739

161646143454
34737b137f67
433514195c12
7f7c77175836
6c4b52255811
2359207c7e4b
2b74155e7256
25170c783248
426e175e683d
20161647341c
331716346838
46143e1c5c4c
7f3e6677251f
755b444a1e1c
10213a12771e
1d441a1b161f
21076114161f

1b35261e534b
5b705d5b7d63
2c3c341b326e
7f2918264a62
53367f353a20
712524312379
3e7e2b357429
2a1710711e62
472b2623704c
25161e45183c
2e1424527825
226c5e1b5c3e
7337227f347b
63653f346e3c
151529387b19
2f2116522e19
7f2a6c212e19

7f4861352b2e
471d21242813
1b1c4b1b5027
1b17782a6e30
72263d6d1c58
4b194c306557
2613327f1f44
281a6f18797d
18322c597f69
7728212d2a4e
2077301c2863
2a1d5a18224a
3b343f05186f
5f425a5c7f40
7f146950411c
6b1124177237
1b417f607237

0f6257236f65
3268615f356c
66105b151a1f
37592a1c6426
68326b3e601c
1b5b18551939
1a281b5d3f5c
15126b2c1c37
32641214626b
192a155f5976
581b65356d1f
572242166f5b
59560b0c604a
6e2d4e2d5a43
15332670660f
1b6d11781a17
5f434f421a17

274320251e16
273b2062250b
151b1344661f
19687b355d57
3d2d64612721
5f221528083a
4b180c431d4b
70781a17767a
163b17261c56
0f4866294b6a
271e40262f20
216d41780e52
1a1c776e2053
2b4623372a26
155c5646453e
19287c0c2314
7f4f5b2f2314

437b38594c1b
516607752419
240f5e233348
1d2c661b161d
00190c3d2279
7123340e114f
34156f621533
26127f1a7f49
1d68383c786e
7b1b21214369
2b3c0a123468
2e6a45193e26
161e205e1d6e
2e0f544f6374
4d1f0d102717
5c2e170c296f
54072164296f

113e422d4655
49685a4e3147
3d32671d397b
295152164b2e
7c3d377a5012
3d3e1d4f287f
3a1c14133f42
1b15562e307f
524a1c1d215c
4d1e2c44486a
441b4c3d4e1a
4f3a7c0e4f4b
2c48657f444e
591932212f56
161634324515
2f2b172e160f
7f4c523a160f

173444162c0e
462824623325
070efd3a3e0f
1b1b334e6744
401b3f600514
500117414133
390f0f1d0f54
7e7f451a554e
2c3d151d6a47
704c7e100e16
03212d21272f
0530247f1d3b
3b121543020b
497c43311f4e
1b320f0f5b36
1b047f55120d
5d29734e120d

175047274273
1c7a7f712f01
327d0f23595c
413b321e5c4b
047b77622c11
2f212756407e
494b290a303c
28114032293e
7f62253c1070
581f28415321
2c217d7e2f38
3d215a204f32
277c79123044
4f0a653e423f
1d2a44395d1e
2d2e0c591b16
7f7b561f1b16

22431e2f5c67
4153593a4021
4b7619164160
26456f1a7543
3b730c484216
4637155d6844
27421051357f
1d1b2b43187f
776c18263e52
732023541559
54154c6a4624
4332671d777f
436d353e4f7e
7c2f3b366034
1a237e667f1f
304716511e1c
406959251e1c

781e6661691c
683e745b1e08
172263216c39
0c21511d7033
7e1c15181835
17373b704f61
461c2564125c
15107613367f
3f5f3d323446
34181d2d0b2b
297b531c0e4f
2a544c12294b
17292b721d27
6d505758613c
731a7617561e
552010505136
2d7477325136

2b1649360f32
7f1112500b67
13203b155471
1a71421c4264
790f0e391478
682337483d3b
18196a410d5e
31164b1e2124
49254d656734
0c191e34524d
22274229193e
236f57182e26
0a2b32251f48
545037185770
2b16452c1f19
531d1c6b4c7e
093e3a364c7e

15607213201c
2c7f143a1c2c
2321573a6c2c
150927762426
402176252e22
3d39153d3e57
7422170a1362
44355b1d3b7b
3067185d5348
7f4f533b7960
272115211e14
1c1d323e6c29
4d217f3e1b35
4c140f41434d
15431f601a7f
2623356a2511
7b462c302511

3c405d703727
53074d191843
292358194a7f
1e414d244638
1f154b7d2c35
242c7f5c1a25
1f1b3825263b
2120371c3b22
21117f2a687e
191420132074
1b251a0e1d78
1a4d49140e3e
152a53411d10
326b2a2d4a7f
461516265912
7f171c3f4f2c
4e0e777f4f2c

2f3d5020391c
44334d1e1c29
2c1250791422
086029687c35
6e137e59291d
493326462c6e
261b1c4b1554
4e261f1a5a59
305b255b2940
5d7f68325324
31115d2b1622
33147f4a2640
1f176d502b1e
1c54562b5257
157f372d353e
3d3734762215
7f4746202215

436732734926
4c4d2c43172b
1c16691f4b41
184f172d667f
32202e722933
24293f39720e
24214e641720
200e3b105b1a
342a42517617
33212a29113a
2a434320187f
2b1b56155e13
0f1230391842
473f2f53377f
3e215a4c2315
662b16677f2a
2f1c45557f2a

185a631e5560
3e467f5f727f
5943591d2150
7a4f3f183e1d
37300e7a5c0e
44671f411e54
3f7a1f3e7438
35180b7f7060
31651b2c767f
4f0f135f7231
4c1a6d367f32
60260a1f5359
52486e393e7a
734329490b4d
162a377d7e21
124e1b481d1f
200a27451d1f

1d314e196647
4057617f6e77
534e47245077
7b54311e4136
3a3f78604c16
70591d2f1f2b
41781d777478
2d1a2e786920
3472194f6e5c
761c1e64421d
4d1c40367f1c
464c5911674d
6a542a714554
3c3915311b1f
17203e2e4618
2d4714301914
2b157f121914

7f287c30151b
566d053d2916
1b1a331a301b
11583d1f4d55
0e2a3e271157
572742516518
24103c0b2042
2512401b137d
17652552752f
451c1d1e246a
25765a1f1958
1b50341f5245
691d46461509
2f357d714e41
7f134c204f22
641a1f4a5a30
195813475a30

0e7f672f737f
297f6673427f
7f167f135c2a
2e7f0c15672c
75316f1e7f23
477f18405e3a
2e32255e3b7f
1b1d4e28137f
2b731562785a
231b237f0947
7f163c277f27
7f727f18647f
744a6f3d7f7f
7f41672b4d4a
1d1f4c737313
227f1d7f1b1b
7f55663d1b1b

1f261e312b26
573922451f3d
2f1542493c4c
253a39344b0b
3f256e241f23
1b2523395c66
6f22114c2469
6e7047194349
3f1a1f0c303d
7a5068431150
3d1729152044
25414e7a2731
142b2c5d1a79
062053353916
18531d203c46
362c6d28150e
22483634150e

2c535540301a
3a68081f186a
101945213a63
14394b1e0a18
201718761874
472a343a134d
40177f5a1a38
28195d0f7f53
2c20330f6e72
4d141213505b
17402e142144
126e7c1c2b4c
211e6e5f2043
3d5a353f735e
451f1023321c
72091d6d2f76
7b4c42552f76

186e57347f79
116d7f7c2e77
6c307f1e141d
317c4a117f46
6f3d265b7f08
4670181b137f
3a252120447c
17155a2c6e66
617f1f63127f
2b1c23695f4b
6d115c49732d
6b56721c7f7e
52461d176870
6531244c6735
181c7f7f7d0f
2c6d147f0c0e
7f1526520c0e

18403428532a
2f0c7f222054
29183440373e
1a572f653062
2623133e251c
261f28491f44
2b0d0e621411
7f7f73197424
10291867405a
423e7724244a
351b4c161434
1c30447c2e58
3d35201d1628
696629223a0f
1d48560c1d44
2f1c7f422115
702232332115

1f4672234e7f
4335532b3510
366e71174f27
28541c266c41
0e7f435a4311
22341e605f35
4a4126442667
26137f332e27
7f5819463160
4b172d433b3d
3819767a292a
453817127869
4476425d3679
21431a3a304d
1e165e105127
1e4d0c73181a
3d2a332e181a

2346230f4b57
223a73293b18
317f1d174707
233341107511
51770d2a1a1a
4f2c1b7f423a
173f21753758
1e130c3d7274
55601f1f6862
3e1826253e0d
251d4f7f2b22
29066a132436
5b7c53353827
4646013b491f
0e1b500b5f2d
1d1c10721427
125f13441427

7a417c545d2f
6c6e286b1a6f
2b240a21753f
12541e1f4909
18231b192d45
432a54422a0e
131c2f391c3f
1e187a103225
48473a4c190c
461d1b277c7f
2a7f45291c60
246335130b27
6d1c5a4a197c
6c09796c3823
7f2c311e471b
743b18145637
162a14485637

425465286531
4c3372592449
292b101e157f
1f1f2c224811
1f1f2d6d1f7f
662f3f187b35
1d327f371a6d
251312206147
4d4b4f334c26
6f1e211e2e10
2039662c3440
1c7f2e0d2d5b
3321527a1f6b
5f7b2c195663
331635381414
4d271b374875
16445c304875

1553202e1211
0c2130392068
221327472e58
251c607b2f59
69195d102623
14231c68280b
7a281413121b
453d56192557
0b430e5c3073
7f4c50324d54
1b184a082118
1c57274e142d
30257a791e47
1a350a3b3d1e
163e0057447f
2b2a30732516
216030272516

42303e592d20
571a525c2753
21141a165b77
283e052b395c
51123067183a
50227f480131
3c28440f2542
121f4d251028
1b477f2a3b22
1e14201c6c76
1a2c26202968
1b4b310e4639
571404162317
3d422e2e697b
451144114418
7b1919114c34
400c2d774c34

230f3d0b1d21
2f6b636f245f
2c167a7f2847
110f51583f3d
6419533b1827
2a2428605c34
431f125f166c
4d20611c7175
284c1b5e0b19
0d7f723c782a
351950351b3b
2d2c4d4a1b48
4b267d171d33
416f194e540f
227f284f2843
20242f591e0d
7f1e7f561e0d

4328366d233a
6642201c1e5a
171e781d3543
1422421f237e
33265a7a2a32
7f25355d2e13
292e44231a50
2312611d4607
223e367f2645
632536204b6a
1f2d5723227e
195249176e52
562869242413
147a604c1d4e
401b13393219
42311f2b762b
59165c7f762b

1362522f7a3e
477f5d237f67
31332c1b512d
7f587e12344f
5f3848183f09
5a3f1a417172
2d7e106d7f1b
1a155b784256
2e382262296f
201d20221c3d
241a1a3d7a3a
493c621d5635
5324447f2747
2324691b6d3a
1b22791b5d22
28291e7f2317
2337432d2317

1a2d2f1c4655
19733e387c75
42477c182964
771c7118104d
2c50245e5717
424c16500b26
307f1a477f26
1d175378165d
4e3f1a410c12
43151d4c3a39
4c1971556820
44150a15274d
7f412034423f
324d29234e46
17132f4e5122
195a10791b24
4c31200f1b24

7f2757314927
5f2f06601d09
151648237f7f
173e7a1e0b41
291d281e1b4d
3a0d4c59184f
2b19382e1510
1a1517123150
354d363d794d
69212d173226
2c7f52212449
117f7f16142a
3228744b202d
6337477f774e
7b1f30140917
5b241dfe6e34
3156664d6e34

097653167677
2e757d7d4c6a
7d187d173f17
297d1022763d
7b2f2a427d1e
167d16146143
212517263e76
201f3e352b3a
4e76192c4f7a
722217760a42
7d173543462f
7d2234127d7d
445927767d7d
7b191b1d4025
13206b767d1a
1876177c241b
456c3117241b

192e11236218
49576475310d
18224f300838
113237337555
2e16247a1c26
39281162257e
721912271a26
627b7c1e3f04
221c1f636757
2f497223452b
30173c151336
242f037f1a16
1b1d2a571d20
60096d3c3437
1b4d3f3f224e
2c347c1d1516
606768271516

2c2517595429
710b2523136b
141e79187d54
12547d1d5c18
312f240d0d7d
7812335a4c58
181f765a1220
22125720733d
4e4640775226
280c18127e2d
184606212553
183a591e4f2c
261a2d691874
262652682a77
52212371480f
7d131806327a
29487d58327a

2f5f2c246e67
176e6d613572
5d336b286707
2b5c71217126
2a472a4f5c13
1b5e16176d16
382b242c495f
251d09335167
376019480871
6924235f6f5e
5e1f1b376828
5d444d236d5d
46506f655e5c
552026495017
2d1a4f7b6014
2e5f1d651b18
1a373b341b18

1d2332213017
200c74762442
1c1818484c2e
1849327a385a
351f2e1d1c1e
1b36232a7f57
3312193d184c
7c77271e6449
0e40195d2e33
14507d17543e
1e170f0c302f
1e3a757d6130
201474141274
3d667c366018
194a66300b34
333076292717
484245462717

144b191e7e63
2a507f353961
307f2e185316
3c5c25167057
68767a7a400f
163514215b5d
1c312a523158
2618603d7f49
6c600f1a1d3d
071c28372451
2c10786e3534
3a502816522d
7f7650393a5d
5c7f6211254e
16163e473413
2a55161e1612
7175772a1612

1d2a6e24767f
3a7f63395321
457f751d7f34
2d2f0720400a
197f16073711
1e45277f4840
2b3d1e532b65
1a0d73465f61
734c2a53131f
7f222649096b
2d1b7f7f491e
3e227619324f
68723929473a
67317f2a5b4e
1b161c2f6616
1b3e17471520
1a283f171520

6e4f3b442c11
7558096b0b22
20262e1e4d47
117d26261548
4b1e0d201731
7214494d233f
2b11250c1853
20137b1e7b79
0d4f4f66494a
091b0f231f7f
227f6326134a
237a631b5118
101714532560
41393f7e385c
7d275e3d5715
7030115c5944
2f50637c5944

3d6450460d12
732e741e1e28
221b3a151f7f
2944431f5231
58157f111e7f
6a29376e7063
19226c5d0e46
231e5116283a
0d4d511f1c48
781520373e4c
1e335e191e4f
2a540f1e4658
35183b0c1e52
646c6e345831
321a6f4a4117
733c1e3a437f
4155452d437f

0e0a71292b1d
46494a0d1636
1c1a444e6625
2110517a274a
7c15262f1928
45221e1d2a12
7f241f391507
423736155b27
132e1b2a3865
454f49283646
201a53251f29
263513451a3b
3c1a3c560d6d
303065262221
18466e5a0c7f
35242c782313
3977764f2313

4260616d361a
6e764e410e39
1b0f73141e79
2058141b072a
4c1e4111202e
291d7c666c23
37173b5b2519
251e0f166d63
36487f51406e
4f1b1b1a5b2e
192b552f114d
241a27234643
53220c301851
653d6e497f50
491407220b11
64141b385535
31176f7f5535

3610661f5b17
3e496660232b
0724457f7177
0c187360136b
7d163740061e
5e10213f6668
2c1919192219
43253e1c517d
3d2a15447d4d
267b721d363f
14123e0e203c
0d39704c6f15
4c1f496f010a
346b62412e2e
1c7e48195c3a
3a11355c2c1a
510e35572c1a

403a717f3724
6f2f552e1e7e
251d421a6e66
12796f1e5c7f
262119762834
7f2e3a273958
2f10437f121d
21163715464e
385c404c5811
45132537542e
2138382c237f
2e551d1a6e56
262049521c20
0c2e423b7f69
391d322a271c
5e19196a7f2e
4e5a48547f2e

1534712a7641
55694025647a
3a3e58257f56
7f5a4f0f3753
643a7a48450d
6e47216b5548
157f2e3a7476
191c3873546c
2f4b2770574a
72252436403a
3d183031663e
475759165b4a
7a267a763168
4b2128173533
142b557f7f2b
23491c7f2d1e
28533e1f2d1e

205f2110603f
236871157649
33456d271249
745229287522
4b403e4d3728
2f231f7f7f4c
2d781b2b7948
0c11477f126b
6c711f211540
261220276054
33162b3b7f37
35077f143b54
4f503f6d3830
5d5c77482b26
13136561481d
2f410e712420
313f0e382420

782d73342a1f
1f321c19293a
112146226b5c
19037c191765
55175138184e
34234d184410
3d123e5d1a65
191b1615702f
314332684662
112427140e7f
217758261d45
162b0d175a35
20223b621766
20297f5c423a
78166b17331c
622f180a593a
170e0f76593a

1661541a6661
374366665467
66136a122b36
326111216954
3b4711786618
516616206420
132d260e3d66
24192430172a
3266135c2565
20241861612f
6112563f6127
61193f126666
42521e256166
6d175842502c
1e2559576612
15661c601e10
4a755a531e10

1b21412c2e23
1c673b6b261d
0d22183d5d60
1f1d692d6935
39247f21021a
551c25421a7b
512812611a2a
7a7d15205366
3a53223c1742
1e4075095803
10164e09253e
225a577d4910
50085e7f1773
687e40395f4d
184c634d4c36
30117a791b18
636073301b18

38127f502722
7f393b3d206e
161e55194c34
18213419213a
0b2d2c64157e
791c3074080d
191f7f1f1911
1f174328440e
180f3d552650
0b0d282e617a
174329323354
232b26133731
1c281d06144a
4a67574b6a40
51173835681b
742b1a603f75
64563c313f75

1f6966267268
344b7272346f
6c256914575b
346c43187210
6b2c687f6c09
376c15701a7e
372b257f3a6f
2a1f123d1864
3a72176a7075
49192a69204e
6c16482f6918
692d4610726f
55516a666c6c
6c3e0a190c2f
1a0c2e727214
276c175e311f
4f7f403f311f

27572919112a
2b3447482279
2b1624412c1f
1d734f6a7225
662467502e1b
742b180d741f
2f1417332052
6c795a0f2229
255619401013
1b467f35335f
1f182d1f142d
265f71797946
2135124d1f4f
1128092f6240
1f421f475131
21297f362415
3a3f5b502415

1a1f3a1b6f6e
1c32603d4253
417f441b727b
313215144240
47747474500d
555118213517
3942133a2e3a
2918793f2044
7d641e2a3f54
131a1d45762f
41227f77282b
4e1214101a32
676b4b0f4d70
5c1e78365f20
131d7b3d271a
224c10761313
19277b361313

256063103d7f
185559763f49
44797c0f2d4a
272869147522
417d2f412a1b
3632203f6653
1f3512302c24
28172649112a
6e2f1f226267
131a223c562d
291266793425
4a133315436e
7a6f5f504655
7a3135531837
10237f5c361b
22531017191b
5f38423f191b

6e095b43231e
622710221d79
221d701e7f2a
132f4c20581e
7d0b1d2f2837
4d35483d513e
35222c182045
102177160f10
28243b476651
441b1d133927
2a7b2b2f2044
2552550f2615
4c0e630c173e
766c2e75754e
742f705f4119
581412305438
10110d4c5438

31544f45461f
75485e3f1955
1e163d2a6e58
173e48165845
551d5814247d
7f22444a4b05
262c7d171938
2f220828576c
0f16555e265f
271e312f3831
1a354810214c
122e2b1a1f45
171d7a2b210d
22146b646e44
38187e73411b
72211e4f477f
47464c3f477f

182f511a3d28
1163642e2a6f
270d67393c59
25634e7f6e4d
741948232d27
5a231d31362b
7f14172f1416
3e333b16405a
450f182e616a
41504c331b7f
261e6f2d1e39
312245566963
1a26592a224c
5a3f5c5d4051
253f1a2d267f
211e2d3f1b12
5d2c31451b12

493851605b0d
41426b2e2329
1d11481b133d
1d4618204b3a
54152647173b
502a765a2146
291f33591725
172449192c3a
2e3d7c4b1b6e
5f161222255e
12323b1d1f7a
1f327f17322b
30110b2c0f42
1e6a6b2e4373
56184d3d4b1e
6a1c1a015725
154f2a535725

215f65112410
0b5b2f0f193e
251c2c7f415c
14353b626748
6b1b437d1a2e
4b211c5e2359
2c1b12361c0c
3e243e216869
3c1c1a636331
487a5d19371a
29143e1a1b28
1d114237451d
1c254a1d1310
732f66380407
137f6f5f0c3f
25343530180f
58360c3a180f

3d64767f0c29
6a120e250d7d
211a0a1b216c
1e6e4a243851
401f1b3e2a3d
452a39216e66
31124832162d
2e162d1c492a
3b203d425234
3b162d251e30
25305019177f
2252261a2028
4c134c241e5e
2b0d623d457f
35227245512c
573921357f1e
227f3f667f1e

125073284f42
42551631722f
433c161f1d1f
7272520e1d37
4f250c3f3b0f
244a167f3a7f
2d76112f7858
1f177f7b7a39
3b4123335732
6e1818344558
2e1a1e2a7826
424e36164444
4e3c24552012
565c5f166310
182173692027
264b1b0e251d
7f4c6d34251d

1f4d2d1f6c51
433034367722
4a4a2a23576c
7f2954233810
604b32254924
2e37194f3d62
29701c467c78
162115740f13
646414232a54
3e1a2d423a18
38164d4e7f23
357a18222343
434f26344439
3a24260b4342
191a2d285c1c
253e1e452f18
5c045b332f18

761936382430
364d2439205f
1c1915237f65
1835491b6f43
7f2060782251
7f354e514b7f
460f314a1953
2d18061a5837
295f2d76444b
0e2d2d204c75
2577232a3665
135c171b4823
712f151a2521
7a214b766e51
7623320e4d1d
50281b286637
140c42606637

16736718783c
127774783d69
751b5315430f
3f754d1d6e16
163f1615751c
49750e40736e
212b213c3877
3b1a2e2e487f
54781c4f7264
4c2a1a737c31
75133b32661a
733e63156277
684840397575
643c5a3d0b33
1e22596e780c
2375167b2519
60113c282519

1b0b251f571a
161d70342309
192332467009
17257a356126
192136181024
3f0d1f332e3e
42240e2d1a4a
7f7f73207411
3818171b351b
4a4a7f287a3e
172029133725
1b071a794c49
361f300f1c11
376324391147
1a5f0b2f474d
2b0b7d151d12
2b6f124f1d12

3d3c7f405d1d
7f141212104d
1713221b3373
14297a101a4a
542b68671a76
2e2c3811446e
2d217f200b62
25107e154549
1e4a3d3c2d15
5316132b0e43
1a435d300d46
173d7919640e
5516606f1376
221560456c41
4b1f44592417
7a261810347f
5a4c275f347f

105c5e30685c
3c5d69693e69
603765214d4a
315e46196c38
63463c74610e
1863245d1e36
10290f7c3e64
231a2c3d643d
6066202d096c
3317205c642b
6021493c5c25
5c2f6d176964
4357232b6061
6360183e4e27
1c1376586817
266014652315
6f6778582315

1d2516295225
30771f602757
271615406352
132d3f56665e
5c1b4d5b2b25
1834155c3a44
4d17180e1b2a
7f7d78217f1a
2e3d0f241665
70447f425355
37196c1a2835
300a24797a52
221475781b2d
0f5c3203451d
2442683d6732
2f35733e111b
59567337111b

105e2e2d456e
523911502922
487f52136632
3d5c7128542b
2f68102d4d15
3d4225400e35
293d1c312e30
261c14325078
6a622257402a
341c203d276d
331f5b7f2d38
5346181f7f48
7f7f25343b14
7f4b4722333e
191a7e326a28
1a480d751d24
673e17511d24

2b0f1e244b51
386211142e36
34770c133a54
322828143e30
187510552c1e
682720323357
343d17403023
31161c3b7f51
6a591a5a7378
5219192a1a1d
291f73784524
3d4f5312326a
356c27313937
4358644c304d
101a273f5c1a
3038125c1c20
204128171c20

710b244b0c23
745c546d2469
1028541f5d2e
135c23263f67
662453301435
492450160c1e
32202b401246
21157f184111
0f0e3959422e
331f1b0c7f1e
2274171a176a
1051651e310d
5031717e0e66
3f4a7f427855
762c36623219
7f060f5e6533
702a7a716533

34513635300f
7f676734245a
1d213916417b
1f1d5f20265d
432451201d7c
6f2c38276810
3024752e1545
3a17561b181f
351b564f2929
221830386b52
10311b233956
233c0710573d
4730726f267c
582271432e67
30183259351a
743419765a76
306a77645a76

1b2e72181316
227056271149
201316430d18
254b7f7f4820
34182767212d
11181b421720
7f1a1a3d0c0e
203876161e6d
394d101e716c
284b48322331
2e2130191a2e
171056466617
161253201820
49133b3d1629
203d335f287e
2a252c4b1c16
1d216d1f1c16

385d35746010
5f06410a1a25
15165b185b43
186b1e1e2961
0e0d530b0c37
78097f7e6161
452d41391d5c
1f2050176b36
11197e7f6c44
2b181b1c3248
1e234b111066
0c4d1b203e4c
0d2050011421
63527f3e457f
48123673591b
7f111d3e5c28
43702a5b5c28

1a2d7b123718
342b46361d24
221c3d7f0466
0e434d603267
471b50791c17
1c3822102f3d
411a1659257a
3d1d191b497f
18141c4b2e47
207f512a7f50
3317262c291d
230841417f42
4b227c762370
553a46396237
1b7f4a0a1a41
2e2831491517
652c51221517

40620a7d2225
7f667f52177e
161761162358
171d5b21737f
151e147c1a43
7f393b375f71
221f463e1c3f
1b127c244e02
1324414e2734
511829262c4a
232d5c232a7f
203075174219
351d7b202b36
59024b393550
341d22462c1e
3b3f18717535
714513407535

1628291d233d
402f111b7224
433e73132b13
7f4b4b142c1d
7a2345204614
6c3a201e6d5c
207f1e2e7748
1a21557f6165
3527150b5b19
1e1611274e1e
3a141f3d621b
3c6b1b221639
3a4518243568
5b427f3d6742
192469474b25
283a1a4d2815
7c783d492815

1313261b5153
1c156f447f15
384053162047
77270320642c
1d3e0d39431d
43351c655142
3a74213a7f1e
2119537e781a
436625384028
341822361d71
38202b4c6b1c
3779541f3f56
7f3d05243b54
213a0d4e6c30
17176c0e5516
204e177f1510
252d42161510

7f1a7a416f2b
5b7128591f47
3223401e7160
14137f1c5238
0f1f72282558
39274e203b2b
34123c4c1924
251165146d4f
40462c66503e
0d17232d7f7f
327f63211a6f
337f4b186e33
62284e5a3159
606c41795764
7c1a73185217
61271b0a753a
076e7f60753a

134e221a6d4d
103a6c6f446a
6c2662131502
285a491e6855
723e64136319
3863123f202d
2e311b434267
1a204a3b4378
6d6c105c725a
1e231c641650
5a1c713e5034
641644157267
2a4332615a63
615952443f36
103520685f11
19661c341c0f
73535a2d1c0f

202313274422
31395b502a5d
171314384252
1227482f6724
73174d671411
2f3317235e1c
4c141a652a2b
7a7f64184560
1b4a153a1070
71457d3a3d1a
391665172324
32521c7f6512
151a15622343
2f08564a482d
1c5a1d413c4d
26257e271d19
7c7d61421d19

3a2d1b56090c
755a38311b21
1017671d4d7c
1347791ff75a
2b181c310774
7f10325b3f61
310e73271f37
18163f21083a
1532356f7f34
49131e0d5a2b
194250101f50
043f1d1a4716
472329571238
642442367970
491b61fd0d28
440a1b30327b
3f3e1847327b

254e2e22506e
30704f583051
4b253f231150
284f62135722
7446204c550e
5c411a2b4135
3d370a29444d
2317132e4874
555a1f4f2147
1d23214e2138
49227247793d
491547154645
29541f434e51
7a5a484e4e54
20147f754410
2f5015761f15
6f5e182f1f15

24451c235926
211f1457194a
150e5746284c
162944642b61
231f5b6e181d
39271f743322
27080e341840
7a7353216b5f
295215637f66
4b4979143e16
221b46271220
1527587e171d
1e2556111936
5d1461302f3d
18435f281634
200f7d731b1d
734e252c1b1d

282f6d187f71
23226334313e
49786121473b
3c7032204153
147f69294313
284a257f703a
2b39226b3441
2d1e0b352b7f
7f6c20410c55
3c2c204c6134
34205a7f2c48
4131321b3762
517f604a447e
6a493725734a
1820256d7c1a
213910572921
447a48662921

1e4620227e7f
3d362d3e4376
2f794e16105a
3c6e37187f44
6772441a1c1a
21352c574443
243118173969
2819763d3f6f
724720563537
290f233c0c27
2b1d517a3d22
2c684d21256a
6f715845464d
7655622c5c1d
182548467521
3239122d2521
30762c192521

7f2a7649151e
463144252352
182000181c44
185b61291e2c
7c1f26101a4a
20293b121c1c
2b21323e203f
19160e190c69
385b362b0961
421d2620645f
137720200e74
157d7f0c5326
1f27321f0c36
144a486f4a2d
7f225b0d5221
6a1416496b3e
6820454d6b3e

2e35244c3026
5c1327652379
191a2c12253c
1b7634205969
732a29741b7f
7f24300e5c4d
3e2478241240
291e1d203373
1e504e7f6f21
1d16162b6b37
28375323154b
144a3c106a21
18127f252030
56104d253c6d
39127a735017
78111d46487b
7a1c645f487b

152550284b22
452e574d0c40
11180e410a5f
155f6a7c2f19
7a1c17731429
651314591c39
6f1813551830
4a376413445f
15611b306f75
4852532d676e
261410231a33
1f682a522e29
14182e5c116d
5d5573153841
204e4d5b217f
191430431918
635452471918

44307f5e2712
74273d390b54
1a1722135a50
1935351d4d4e
531b64381c2f
72157918345c
1e27444a134a
25154d1f2666
16127d6c4541
7615242e2779
35312512225d
1f5a4f112d19
50272f211e2e
384f462b7062
4d192f645215
7f1f13445b28
736940595b28

31225219321a
403518351627
1a164e78155a
0b634f651d68
141f7d73260f
2a262161185d
3216192c175f
4e275d1a6462
414a1b671061
58765e374e69
231354172420
2f1d5239251e
372d58391467
3d3963245317
207f3f68224c
1a332f1f1f0f
5c2d0e151f0f

482b747f0d21
4c0716251a2b
1c18431b735b
153655204d7f
55205e54243e
3d253c334a5c
331b4c211562
3b15761e7948
344343574928
481c2d237f7b
2f35262b2c7f
1a7f5b154529
22315b152100
317f3835596a
3422295c2c18
5238161d7732
1726437f7732

1c385f213048
372e640b7f40
4437261d2340
7e77720f702f
342f5d585213
473b1c5a3350
3c7f1b537f4a
18137d6d0b69
374c1e536f40
48141930341d
32196c427914
4345271b6f59
7f3e23163675
40607d286139
0f2312494a21
374b166b1c1c
3c4f2f121c1c

1d1c4b1f7f4a
343873277952
3c3742194454
7468302c4225
3e47145d4029
2c2e136e6707
307a28377541
1d1c5a7c4845
4b321f2d6d43
381d17554623
441361367f26
3e3f7116462f
483d72403f2d
7e6a23176e4b
1410711f7f1b
1c4116791c22
2a6f4e0f1c22

6a28622d0425
2651f7631e28
fc205d20401e
1a3229195548
59297078ff4f
601345574b07
161d3177252c
2b2021163349
284c294e2a1f
6c1e20155a7f
1772111d076f
115474190506
1c2549130b51
07326f6b5a2f
7f1349341217
5f1f1a4b5746
6c5543575746

157731297a77
3d4a7a7a4779
78197717601c
32781f1b7a40
6f3d422f7815
1b781e581878
342627474079
261833354167
457a104e6f7b
582312774419
781c16377529
776a67147a79
2f4c473e7878
416e42156755
1b20427a7a10
347815752f12
552f3d412f12

214244244f20
382e40511a5f
15193f43205f
175e3b407f2c
191c1160121b
491f156e3e23
652e0b471a38
6f7620233b34
1e4f123f2b5e
3e4a74177310
1013480e1d2f
1443767f364b
312b2e20167a
653b75204519
1d564e2f4d42
15257c111813
2f3d56151813

3d3d5c563823
765974481a4f
181e4817427f
196c3a165112
19147a24197e
511b3414313d
21187a62291c
2f0e6614211c
204c375f470c
7311211a2359
21362f29283e
1a15651d5f38
1d175646196e
413a593b6b33
4f1b75112313
612c136e377e
095f6725377e

205658344562
447c3c3f324a
542548247464
2b583a19401a
5b474e7d5411
61551b2c487b
353e144f3a49
262367337a72
633e185a3f41
4b1830565435
59112645462d
562f74223c49
4f5820225954
703f761a1642
19207f483f10
2b541f221d1b
6b1371201d1b

2b111a235914
371b6a1e243c
2c11103e4159
1e1b7f58301f
370b6c762317
1b3f136b4a21
401c11701f2a
7f7b18186550
131a19685435
414377273329
281a54191c22
1b2b70742a29
3f1d2e24222c
447f3f351240
27483f164731
23347e13251b
46653a18251b

1b671c194271
0c556f163848
267f301a5e3a
34283c1c3c30
777715193510
194026265d55
21501f22304f
21154b3a6e1c
713a1d6a4330
79211b33595a
31137a7f2e2b
38476b196650
6a7f5a6a2e4d
337f574c5d2f
1a220c354818
194c102a2715
4d141a1d2715

1d44681e4575
2b103d292f11
3d7f4b1a6e43
313c4f1a4f13
597e44264117
16422015241c
1b43162f3973
23167b363b21
616e2d297860
211921543f2a
4b127f674b28
47524f165d41
2a725f4b484a
7f6920323846
1220286c671e
353e1863171c
5f601b34171c

7f1f6a3e1e27
53763a101e7e
1c187320261f
1218202b0034
181a1a5d1737
1a27492c1e6a
461e3078182f
151d7f137662
39113f7f424a
191c121d2d4e
1674141f2670
2221390f2d4d
3f272106144d
4a5b5f7f2b3c
7f261b651e19
672f0c6a6532
4e71235e6532

42677f39602e
7b3658452847
271e560f753f
1d62402b723d
761855171f76
56383c187c3e
2a2478561a65
2f1a17252515
313b5727380e
07161f1b4e26
1d391f192041
2750121a1c2d
221d776e1f4e
4042783a1b65
31137f6b4920
5d33171a4b79
384a764a4b79

044029263817
3c5f5938271e
1718223f556e
1e29727f2852
710e233f1816
2a21186b735f
7f13130c112a
4f35740f2d69
3a0e13612f35
734a562e1874
101b221c2124
11765c492d18
4a110a412046
2b711f17101a
1d451f194372
181c2c662715
67695f2a2715

462a6269142b
46572a741559
121118243b7a
1c1b61205939
7c21216a1d3d
411c7f3a3f5c
36243c6e1f0a
30193a1e4231
1f387f543e17
082216173461
312d4d222e79
2335141a5f34
57167254164f
7a7a66464e4a
481e0e492f19
772114296322
576c27486322

27047b123b1c
253038101b6e
281b257f446e
0e2374633655
29121f752418
351d1c396818
4f081b582615
4c2565185464
1a4d1b24542f
1b7f60397c12
2b0f6b2d1e30
2d2e39451412
5013350c1967
172b550c3a2b
177f66295236
342731701111
556412411111

443c7372482b
5c256d651121
13104f12597a
164053355a50
28165059102c
7e0d357a6365
312b4475120f
1d1b451f311b
2e5740747f36
3018290d597f
2939222e1f7f
1c785620751d
4f142f55193e
4b605f347f7e
40177e100920
502717697e22
0f7f1d607e22

1e3d51144745
2a1a43467a77
4842711b6f1a
7f7f36141f52
713a72454c0c
723d20341822
387e167f7e76
1b210f783946
3769193c5a2e
141611434031
381f4242733a
4e2c39197f62
51435b16375f
7c1e4928241c
16242f2c2c28
2f2b1d7d1c1c
551b21371c1c

226a670d3f48
432f403e7966
444020196b36
72722c23361a
1946784e4a2a
264b107e2451
437f26357673
220c2c711151
4f6a11260f14
511f2a3c1134
3f171d417022
345939145852
7239561b457d
4a166514114c
15113454411d
2c5711630f23
706714270f23

7d3c4839332c
3c683c20236e
230e321d2725
1e0e251c597f
591e6f211c57
541a46642368
2a13382b1558
131e321d3543
2e572a30601f
251e1c242b54
147f3420315d
30582b246429
4b160e261c63
305c397e2050
78194e1a4a17
48152d576f3a
745b2d6d6f3a

1544471f6148
397256524859
5f27471c1328
3c4748285d25
703229144717
5e531a436949
343a1a48444d
341b5f305a53
4e510c292959
7f1c174f3644
53192a3a5421
4e6c25195c4c
7746224d5347
4d6c06340b23
1b19795d4b0d
19601c5c1a1e
5e354c2d1a1e

211655322f26
2b6c35321909
1715403e1567
202b44316b27
611d225f1523
251b21080713
5729084a1b1a
717f7f1f1d35
120c19071518
38407a24704c
221b610e1720
221f2d750f26
2e2a1d611f24
11305e54702c
1a544f4d4f41
4222770b140e
5b665835140e

483d6d4b5d1a
7f70303b0b42
272148197265
11674c130f4f
132b2d17257f
5e4528604967
4e0e79251854
201210171d30
1d2a2e297947
19161d3a5479
3339181d1149
2c5d5f1b6a56
501617212960
2664565b7c69
471c7f1f1d16
7c3c1e6f317a
2b1a432e317a

27776a297e76
2d7f7e6d3b7c
722b7f1a266d
297e5e1c7f15
7a3936787b08
6575254d126d
2f26181e3a7c
12196e29305f
667e1d6a067f
11161b774726
78155d3d6836
773643197e7c
515d5470787b
5b2c09404922
1a0d3a7f7819
287219741d19
7f461f261d19

1b0d57203f14
3b45723b2844
1f0d05421954
1406456b4f1b
502753251b21
6a2918585444
53131e201d3e
7b7f3f1e166a
195c12382230
4e4e7c314364
18113c172517
175e0a7f4330
3a112c67175e
27227f424c35
224c6448103d
2a137f2a1518
7f463c0b1518

1668471c4474
427f4b573222
397064103d46
4b6c1a266042
7f7d16533d16
533a1a18317f
244e26123270
2d193c45744c
6e2a18407d4b
4c1b2032424e
27207f764b31
3b6a381c784e
777f763e2863
7b72342d4e30
232b6e5c3a0f
0e421160190e
23213b2c190e

25732b207270
173c30763d7f
3c764a145b27
2e68481f5720
2d70235f3a19
6d352230490a
38341d193065
2f13543c637f
41201a233453
7f11114f4b69
431e5d694f33
3c2e720f5433
7161592f4c5d
7f106a435844
1423527f7120
193a153e251e
4d6c6224251e

7f5d723b0d2c
54134563177d
20183f1b4921
167566295e24
0d1b16282935
542739122752
411a2d39174c
132339137f55
332a3f167e5b
62171325487d
1c7f501a1b59
201956162a4e
521e3f6b211f
712b517f6e4e
7f1f6242611d
5b3515305934
394429375934

341a183b6727
43564924162c
1a19151b1d57
194c33120f23
24217d2e1f7c
53163b1e126a
191f7a5b0b6c
1b1c721d1e63
3e5e543d2961
33212218526f
2630560f1a5e
181e6b22113f
382c39461848
704b7c4d6033
3c1a2a544319
621d20346678
60361c456678

0b3545254821
145d50251609
141b644b6d47
1f2d6e7f484e
761a18642020
3e31254b506a
7f19204b1b22
4a30470c792f
081716285703
24564c204476
22150b191831
110f2a47191b
0a213076156c
280e661f3834
1e474317537f
1c302b631f19
753a2b471f19

4d4729643620
3c6a78471e74
211852134f48
1b52171f2e26
731e6e7f282d
5920796f1022
3e294d58225e
2818471e6a44
20317a1e6256
741a1a3b2e27
351f5c1d264a
3166211a0d45
3f161b712066
0f3677457d72
491d2a376516
7f1b1651542c
6c35784e542c

204877234b20
2a1557671846
15116d76145e
18192c5c515e
4a136f611126
582d1c5c3c7f
3824142b1f1c
48226d195341
14571b671877
21796e266227
1d17501e1a31
136f79411324
2816317f1864
1e2c46472315
0c744126384c
28153c461f16
7f6e6c4a1f16

3f19357e331b
5b3f46532737
14160f145e69
1b2422241b42
60202c7f153a
26083610740b
221a3b7f1229
1a196c177212
3e21347f5803
22152d236957
273d4129197f
1b617f170f3e
59261f23073d
6d293043647e
3e1e60790013
3a2218137f36
6b4a277f7f36

1452231c7f4f
2e4b6e257f7f
3b4a332a7068
7a3f3a1b4a0b
643a27444612
093e1c1c6c0f
297821447f40
25127f7f1e15
4627180a427f
6f2426507229
391960487c20
4c5f3f155657
65302225404b
382139195a2a
1c257f5a3328
232f1b561e13
2f794d411e13

16231631354b
56495c227f77
3d327c1b1e31
7b6328221a4b
703c327c4237
4c4612552e4e
26751f2f7d7f
1918147f7b1f
5b651d5b292b
3e181545191e
3e1d4c4c741f
4054271c4a40
6d2c73643765
57633233632a
12104e77731e
30380f7a2517
271b783a2517

7d1a5d3e3b2e
6021735c297e
2e1a701d735c
122d251f414b
141b6446274a
632d4b697f13
181032211477
3c18241a5b7d
2b6037534626
4b271a2f457f
447d1f282963
334c7f1a0e3a
4e266c543348
1d533a7f7f4c
7f147f624614
7537217d772d
766e797f772d

117f1d1e787f
1f4978784677
751b790f6c4d
387f341e7a43
7f3b2d1b7625
34761f7f7045
232512193f77
18122f34187f
3e7814236d7c
2f1e1a7f531d
7f165c4c7f22
7f2233117877
4f3b135d7f76
7f544114363f
211f517a7813
3f75157f181a
3a6c3c3b181a

2b2e43225b11
3a6367611f1f
200f27475a1f
183d5f3f1c3f
5819483e1b1b
303424252122
471a1e1f224d
7d7b61144e5a
28081b492a0d
5a5c7c3a2817
31133e152e30
26214e7c2d1c
0e28216d1f5f
37126317234b
184d0e3d5e48
2d2075551c15
784e3b101c15

4c2e6a4e5f1f
5d712b232039
121a51176860
11557f183b35
3924682e187c
1b1a3766076d
3f147f351430
191858162642
1c1a383d4f21
7f1516213325
12384a222b32
22586b161015
49304c162316
67141f361c64
53206e774816
71271718317f
6a25475b317f

1b772b2d7f76
387f7f7f2f7f
7f3273167257
2a78221e7f15
4d3f185e7d0d
3f7d175d097f
1a351771497f
29194d2f5173
4b7f1e43787f
251517773817
781154456d13
765e56197f7f
36500f75787d
381f60501b3e
1414347f7f1b
1b7f18741712
466e50171712

16545f212517
2353686c1f1c
221d374d5a0f
1d3a24534121
111c751c331f
3c2114722e2f
53151a2a145e
7f7f10256d0b
39360f620e08
4e547c20342c
3015741e2135
1d58477f6b23
3b12695c171a
195a6e254a28
1a4f13311e34
1e287f362d1a
473b23312d1a

252b6c227f70
35183f3a241e
477d7f213979
3f61611d703b
447f35244d11
1b5a1d4d597f
274923542e5a
2f1b2f312d7b
7f3f323b3a34
4c21324c3024
3f1a4d793a1c
4f3563175770
67737a354725
5a65493e5a44
1b2255207f1f
1c3a17601818
3d527b341818

2157201a687f
5258613e4731
3b7f6c20273e
3b2f651d3a3c
7f7f661a311a
5049276b393e
2337141f3b63
0c172b441139
7f623342763e
6f1f1c41545d
2b1d477f562d
302b310c2658
477f1f3d3b42
55312434534b
112744795b21
31381446211f
647c250f211f

7f371f4e392e
543b63702123
1a2172224e0d
1825261a163e
432341232d41
0d33455d135a
2f153b1c1c40
121b2d10262c
1c4238407d56
7323182a2239
1c7b0618206c
233259135045
1b255d46220c
221d797f6836
7c2210723920
602f17626236
591c0a4f6236

4019513c5320
77151b451435
0d1d490f6758
124a7f244361
59175c572276
790d2f7b493e
2e13710f133c
251b5019277d
26fd4e232d38
5f1b2e0e086d
103b4c292061
095070162430
4b257f230a08
773d6d5d3051
2a1c3b3c4a1d
69191b61577e
2a5c4038577e

12241d262012
337f15461941
1811473f643d
1e58297f5d1a
151873601317
1e1a14655542
702a11681b57
3a3c1f191b41
2c5f13676557
77483c2e245e
1d1211181635
141057433429
550d774b0c09
3d5f2819653a
0c467971547d
2a272b5c2514
56444a132514

40315d496908
5e2d3f581528
0f1c46183379
17162f266671
281242640932
770e7f3d440d
44203a511b07
160e35172a1a
27247f1c233e
62171c14302b
271e1c161d60
0c5b50165617
3d205c780e17
28567f5f6e7f
4210060e4017
63220f2d462c
566f4f62462c

206469126516
227c49580f38
38183e7b7729
103744586857
211546683a1a
5738241e2550
3413171e1e23
572439252709
0f17195c247f
407e6357615c
39126c19133b
442e7a38493f
1f1e763e2b5f
470a6c4f2625
1d7b34325645
254c376f1c13
595056171c13

456c167f6420
512c6c620c7f
201a2f222c1c
0d4166327f7f
5b297f64172f
76292d0d391b
12103a7f112c
261247144739
1f53452e6273
6e152d1c433c
2a4553321b70
237f401d5630
28227f53294c
60645237437f
2f161a302520
4f2c17087f28
151d22587f28

1e212e217f4b
28312d5d7a56
493f7f247f2c
7f7f21127f2a
7f2e41424c0c
6f46267f7f1c
157f19717f38
31123e7c127f
414f1644647a
561915401a4d
3c154a397f3d
5643551b5848
7e3c5a6b337d
4a20492f283a
112313337b25
1d5416522517
71576f3f2517

213d6326294e
2048657f7d6d
35426c233d11
761879264820
7f3759603d28
5548162d5a46
237e242e7c4e
1d1a3f7f5c71
712c12163d49
4a1917372f1d
341328447635
3d61401d474b
7f3c46373c75
167752185d2d
13141c217b20
285214321f15
50452f5d1f15

76517f396323
3c275755233e
251d721e7f1e
1f33261e3a4f
6a1b141f2553
29245c1b604e
312140551c22
1c1435191357
28482c436b1a
16212a2d6e62
347b3e1a3e43
315041107560
4332274e2677
672236775447
7a196e396220
5029187a6b31
190c27646b31

0f7112127771
237577773c75
731955124943
3973651b754b
5d454225731d
39731b5d2012
382520493e75
1b18202e7e75
5b7719126955
7e1f0c716718
730d393f7121
714531167775
3365131c7373
7363502c443d
0e2869757718
1473186e1e10
6b43342d1e10

1742752f642a
3a6a4c242a14
1c101d3b1831
1d2348337f3f
691d2b071f1b
302f223a562c
4b26181f2275
7d7f62261a1a
1f1e215b4e63
453e7c366928
31150e1e1a2e
2f415f7a4224
1a2b1a501d64
5b343c381464
1f4d5b55683f
2f1c7e7b1c18
06423e1e1c18

403c235e4020
5e45151c154d
1c0c3a13344e
1b277f187521
75212e66227b
7f163846263a
41127f241311
2f19431d5b5a
1e203c5a6531
6d1128275b4f
1d444b371938
1a2e78165044
5117326c2d49
631541424e45
501f477f1523
5e291e76367f
7c5b4071367f

177f501f667f
0a4567683469
70337f241054
247678156b0e
46454a7e6e1a
257021441525
243b1a2a4d62
1e156830377f
256415625b6c
2a1f247f3d1c
781c292f7f34
7f207f186762
2c394f46786e
7c7d194c103e
1f235e646612
1e70127f1417
7b2546131417

1e4b232c351b
57124f782426
1b14224e362d
1913296c382a
4123317f121c
411a1a334561
2e180b332458
7778531f5a73
412d13476741
124a7f123953
14152f1d211d
1237767a1822
251f3168171f
1c71530e5013
1248181e4d34
2d247f4f1d15
74651a331d15

16664f2d4d7d
3f7e0d502677
427f5c182b59
373379271155
5f7f7f4d3b0e
3148282c5721
0d45242d3428
37165e427268
7a281f627f7f
47282a3d5211
2b217f7a4842
451130212353
77647f522077
4d4c31232c22
19263f272a19
2742102d1a1d
2a597f271a1d

242150345e7f
4439606b3632
3f7b341c2b46
297068164c1d
387f4b112e17
712e1d756118
45361e663727
3616323b507f
7f76261b6d4c
771616323479
3519687f4138
413440112a5f
3b7f5d744164
5d4d24165c4c
161e38606017
314c11552324
583f2b522324

751f26461e13
75172963202c
1f17281b1637
0e62121b5045
002454172c44
662644143921
3c2136391a45
14202c195221
3e1c306a4b5b
381e1e2d2423
1e7c1823145b
14403b180a1f
3c2353651233
150a4a6c7e4a
7f28503f3c1a
742c182a5b34
1f3840535b34

38421338522a
7b392d2f1e70
1a2620190c22
1c7775235c1c
5b1b53582175
412435485834
3c177b311a2a
26192f167e16
2f3053682947
7b1a33193f66
2927651e3150
19360f126b25
401e7f152046
2e2f1f513b6b
31170d12671f
5e2a1444457f
1c7f4f3c457f

133c63373624
1f4e0a211b24
1f120d3c4c49
18416e7d1e13
4e172e38221a
62182c511c32
7f1e1360193d
1f3d772c0d0b
14341d0a6921
2e473b38063e
1c104d1c2f2a
104478475c3f
5c137f121c42
6a2f2c480f2f
1d3d3407167f
3b2a2b242219
757f224b2219

4b563f516a2f
5f0b1a6f1e3c
2d1e2a17387f
146b2121173b
771f55742d3c
56277e115017
39173c29163b
2a1677176135
32367f564612
201428282b24
2f2828241a6f
377f4b1c5834
242d3c581743
120f6f72736c
4c194a24341d
7e27121f4a28
441a30664a28

1b477f156919
2f2c4e48225a
2710397f2529
105062554d38
520c3e202e1c
1832231c5b7f
391f224b1f51
481f68176813
0c6e14193742
1e7f64251227
291c671e372d
31757b392e57
5b1d727f2032
4261622e1f50
197f483a5449
2f222d201d0a
34541f0c1d0a

401c617f5b16
6d404e2b1a4a
0c2962141453
186b76251c5b
5a2b7b40164c
522e32466f73
312147611a29
2a1426164e41
2f0f437f4305
29122108287b
212e2d2f097f
1424250e0b29
5b2a314f1b61
503c4c53524f
3d212410491c
5c1213467d34
237c4d7f7d34

111b47263b48
444230216f27
2b4465247b27
7d4f48143d5f
5f336a5b470e
4c42225b2c7f
3973193c7e47
2c18737f3470
477f17547a3f
66221e23041f
20207f377622
384c7f205d3f
7c3673112d4d
7f6a75383e5d
15176f287f2d
1f2e19541322
240e78261322

1640491a5445
31465b3c7a1d
3a3d6e1a4844
693e19255a5a
634b4e604018
423614611b1a
257d1c1d712f
26194e6e3135
4a4a19646e48
200e233b3e26
3319234a752e
422118184159
2d37775c3b71
7f7879204e43
170e2b776028
393714452a21
404114462a21

784656351617
60196d462d57
191a64182922
22125a162468
331e493f1a51
320c49725d2b
2a1645511a41
13134c2a1e4b
2e372a7c7f37
5c17261d5646
1a76492a1d73
1e4e7f0c5921
3c1a7943220b
635f1a53525c
7e147d483a15
470a166a7337
4477366e7337

0a7029107670
1d7476762e74
721a701a1d31
2b72492c764b
473856757218
55720b504938
3624190d4774
16166a2a6a64
3b76123c2a78
632517705956
72173a34701e
70136b137674
3f4619777272
722c403c2a3e
182555767610
177215582414
694c7f322414

1c2b1c273918
1725630a1867
1e1e443c322a
18457f355818
25243a77221b
6b1f1764487f
6e191846256b
7f752f22736b
28192118683a
515475373040
1c172a1e2b20
34353f7f5d14
1c2d3b66147d
30277c47331f
1157273b4d46
25347f231a17
7f4a5a2d1a17

344765554329
4a155c371060
311850193b30
186941134f15
76227f3d3779
5f4934483058
331a7a5a1a4f
281814146d57
0f234027647f
4f1b1f3d2865
2f452e161c48
296e2d234d4b
3e243a7a312d
5c32482f6e3a
55187e782917
7339166c377f
323d5773377f

2771791c7f66
3f7f7f7f3a7f
652b7f223d71
296a61177f44
7f381035710a
3b68186a2974
2a321a393b74
1b173a30687f
447d1e265575
56222c5e2939
601947407527
5e7f75147f74
504c51636077
7f7f4f28792c
170f7d717f13
2f6d237f1f0f
633e3b541f0f

1a2d64254b15
1b2b07122965
1a1043423e76
1c471c6b526c
44212a7f1214
581e195e4b26
4e1414371e62
717478112c21
2f42131d4468
3d417d25614c
2621481b212a
20687f7f061e
202f4c1e1926
5013720e3f39
1e4f3b0e3836
241b7e1d201f
3d382720201f

167f501b777f
473b3d5c304f
3b7a751d2a13
2d495c23184e
2b741c253d0e
294717494518
3b3d25472b3c
15175f397b17
7b711f524078
4823224d6d57
351078794d1e
4744121d5339
45604b1a3a1f
101b05495920
11251f5c4a1c
2252101c1e12
29074c2c1e12

205f1719447f
4857347f375f
36795115776e
2a5866114d13
3b7a7d5e4019
31502b17500d
3b3a13243f4b
12193b466d49
7039170e3d33
7f1822367552
2c1c7871402f
485654124442
477f43494076
511a0545240c
21155e377d24
2f33145c1615
6967501d1615

7f5332551513
4b7161241c20
151c6226574d
174371292528
2b1a25462145
7d2a4d203e47
171e2f2e1d67
1a1a1b0f2819
1f1e4227663c
751e2b174129
177a1321095c
172e240e6820
321a34051945
2620497a2564
7f2c48143b21
65370b504930
291123484930

3267393c1b27
713d49271877
1b18401d0b43
1e44671f193e
231f6d532975
6f20324e6f70
35207c391c23
211230202c65
432649344f43
191a3f207522
2135211f1751
24692220511a
4a2d7748231b
1740234d4572
3514646c3519
7b19186c4d7c
40656d464d7c

10315c1b2921
1a505b350935
34126e3a4c67
1e1d557f2a1a
7f1f2163361d
2d251a354a6e
7f1a257c103c
3e3b411f7b15
162e1827521c
53504a395042
361640190e23
234a7a3f514a
34186f1f2218
37706a0e4d13
0e483313317f
2428315f301b
76517542301b

483f235d381c
660a1f112a75
1b0d5f183036
2472121b6020
191742571b31
101f7e21293b
2d23316d1f4e
1a25451b5237
2e337f235830
35181d232e1f
0d2e121b2c64
2732071a1a43
272370281a42
3a3c19277f5f
42161e5a3a1d
7f2c1e635427
6364184b5427

246250172a02
342b16541b01
151e177a4439
095376605051
751b7051121b
442421184a15
3c1e145f1309
3526421e4939
243b182e7269
057f6d18721e
1f201c2e171f
17631c3d3021
092351381517
29330c38192e
187f1f4b4d49
2e1a3606240d
632d5a2a240d

42464b7d141d
75620558161e
1f22601b777f
241a462d3853
6320625e2733
672b44616846
341b437f1929
231417127f07
16163b7f7f09
461a1d344d6a
35282d2b197f
286272195d55
521f21062133
4e0b17227f7e
37126c273425
542112297f30
720821637f30

1e6759237d35
2a387c6e7f26
3f4516236829
7f34221c6b32
7b212b685713
124f22215756
207f1c387c5f
26194079255c
496916394e1a
721c1033085d
401f53397b1c
5067141d7443
742b31532e21
12666513454b
1526541e6022
14551455191c
56613c21191c

0d2820273b43
1f3d1a697966
4836191b5c31
7c7d0c1a4d39
5a420f50551c
60451a5e3039
277f24596d32
17281374487f
356d1f28546b
7f1b1551644e
4d1a5d3e683b
4a274e1b2072
424b333d3972
617226260d46
1f1273504e12
26501c50140f
45723026140f

75337e3b1324
3f1a475b1f35
20226a193172
201961246c7e
67234e22185a
43284725203d
3215326b123a
2e2623185b3b
2020305c7b2b
45212d311956
237d241d2c73
1d237f184753
171e107f1e33
30316a7a7b3d
7a1a6218481f
6829276f6e41
2f7f787e6e41

167b7724737f
195b78613a78
76197a1d531b
346c2f137964
7f2d5744781d
2c7718183121
2d3a16123f78
20175c2e197f
31701213567a
45271c7a204b
7a1e4d337f24
7a4d48187878
6a5b530c7a78
7f645a351d41
1f1a2a797810
1d761a7f2b14
331e231d2b14

162b0f284115
501b3e30326e
181b28455c37
1135192f7244
411832241b20
0b2f15267053
4b262351224d
5a797c1f6528
202a234a4115
454f71336934
18120f1a1a26
3250267c3a38
492b74271655
532b25181b25
164f2b4d0955
301d71272118
512f23382118

302d43523f2d
7a56651c156b
17193b293420
123973244440
5c1a7c21147f
732b3c76316e
371272231721
331527242753
21154423560b
60212d141319
1f3b5a2b1c4a
1f371a1a0f2d
361a5207241a
50405b5f4f42
4b207c3c5219
6d101e154279
4d494c604279

1874761c7774
447e77773b76
752f741a4460
377544167726
7b3e4d577514
4f75175e0a59
182f17333d76
131d08304277
40771d271a79
1e1e20743366
75204a4b740d
74417b177776
744b57137575
757f68413c22
161670777713
2c751a701d11
6954223f1d11

172051283b1f
20432f4a1e21
1f17344a0124
1f0e446c295b
561d282a2826
331922295754
33231a01130d
7d75490d601c
2421113c675d
0e477d31790f
181a5512151b
1f471978351f
502f5f051218
30276c38204d
164b4e182837
2e197a4c251c
1d3e382d251c

19645827607f
20305f673b32
4b7b4d21187a
3b2c5b257c4f
247e4b274b17
664f1c1f1133
4441211f3833
2e123f405e7f
6f61254c1353
1326233a2b5d
291d777d412e
4a415a205959
447f3f7f3c67
4c283816363f
15261a423e21
1c450f621f24
496a2d2b1f24

283a72254972
1a29746e377f
3f7d411f3d2d
2b654c1a2733
6a7f120c3918
653d23180e73
313729573340
3b0e2a444f7f
68461f656725
4c1e24332c64
411f7d764e27
5708370a5034
677e67094417
7a651d253121
121d166b521c
2b4816341622
1853081d1622

7a304d4a2d2a
6d302f34225c
250d0f187d29
164341254216
1d234c372846
081f41410d49
1d31361d1f43
1c16761b645f
353c3f542b0a
48141d162764
227f4b162f58
191b35154946
1211640a171e
6d75587f3243
7d1b3a4d421a
7d15105e5e42
0a100b445e42

40645a436b21
6d6e7c762115
261b6e1d764d
105c1e1f5457
2c19354c2d7d
512a367b7a0c
2a257b411663
2321192b5d0b
19305650765f
161e2a33454b
29311a2c395b
2e2c131f5926
112834752d3f
527e153d4e7d
3b1e7e4c3223
5c441a444a7f
0b57485c4a7f

132f661c061b
365f34702b04
1f1a453f1e4c
1b18467e4251
381c4f151510
14211a564e2c
6d0811651c70
3936251a2c48
153b10475362
365134193953
231b4c111c35
0d7c62452e1e
27226e3c1776
3852223d3a2c
19407d353e7d
221e2b6e1814
4f7f1d201814

4658685e4e0f
5c75677a1779
212574176c5c
1527351d063a
3c0e2d571630
452a7f26194a
321249611232
161510171e52
24637f71364a
3d17201a2734
14285b131d65
1834721a6f4e
342c7230193e
6a07484e7e4f
4b181c132a1c
79161477602d
183e6b61602d

20567519210f
2913233c153f
121e53757543
0c446255101f
4b1b4c4e121a
132a16735d39
451f15551a5a
4b234f263a62
295b16081638
507d6426123a
170f60211930
221a674b2622
141b6f0f1353
101f5a11411a
1b7d29600940
1228346b230c
48295543230c

4723197f5719
7f2c5a0d0f66
161a49205838
141932365956
571c46361b31
2d3937245920
271e4a7f180e
0f192b1c256f
3424337f3127
2f16232c3a34
193d27241d6c
1c51521a5b34
4f0a6e4b1927
542b414b6179
302a5f592624
45340e0b7f33
0f7f697f7f33

220f3f236c40
453a142d7071
26430f1f404e
715e44130452
6b2f251e3213
14301e725a5c
1b6e16207357
2a20246f212f
49431f1f090a
6c13212e1d6a
2219222d7432
32464017440f
2f20213c2426
52167f2c1f0d
172e27680e2e
1130224c1c16
16722a2f1c16

19426d2a394e
11407f6d7a5d
3d3d75121776
7c755c123f2c
2f35362d5128
302f1c5f5576
367b1d28705b
151725746424
587f1828384f
2d17173c6226
3d1748387e32
2f7f751c4a45
49241c1c4166
7b7f634d1f4e
0b1578745a1e
133a11281e15
4a304e271e15

