7e432c300e20
3f182c73242e
1125431b3577
1d217a233452
0e1c3c6b1659
7b1945394062
20113547245f
261a0c15603a
32422b675634
771d2a103140
227c2113176e
1c747111462f
38247d1e1c29
35446a5a5656
79186f083514
550f1a5b7431
1e637b5c7431

134b38184657
3d567f554a30
7f1b40141830
363e3023784e
7f374b1f7f11
1c7f132a7f2b
36351d263d5a
200c522c7f17
46670e52447f
7f1f117f7034
7d102c3d4f1f
7e1e7d0e7f7f
344e1c327664
6e193a1b1e44
1d2426565810
177113642218
2f2b43342218

271253291b1b
20455a2e2845
1820453b564f
15692c345351
1f1a4536171f
35221d2c4a13
45291d5a1c1d
6f723c196d3a
1c212214381f
44474f344b2b
14152f161e1d
23422c79374b
522322601b69
134946154f49
27603666363e
19147c61181a
33562731181a

694648466930
69456745184f
1d1a451c6945
1b7f730f7f61
452245451469
451c45454545
4519697f1854
1c1473264545
194545734545
691a18344845
247f452a2d45
1a4545194545
452854511845
697f4569457f
691b45455a1a
7f241746455a
5a694546455a

484672734857
485e4c454551
725748485148
4848674b4c72
577f72485e4f
485e46514861
5e454f454857
72694b4b5e48
575173574c4c
51387267675e
7f5a4c46464f
7257515a4857
485e4c454b5e
5172674b5172
214f48674c67
485e18517245
725754547245

1a4b4b10452a
544661452e4d
1e197f695945
1b4b45454561
4f1b34692519
0f3118466d48
4513167f2211
4f484b244f29
0d0d0e616145
45484b314f46
2117452d1c31
1c480a4b681a
3b2e26451344
481845545a49
174545454f46
732448481519
544545691519

182d6d241e70
3e5b090d2716
3d754c1c485c
38195324612a
6d7b3676431a
534d247b716b
2f492579324d
101e3d413776
641b1b1f7c61
53201b4d3654
312448723526
3f152e1f583e
4971526b544c
584d4b36231b
1e1a392c351c
1d5b127f271b
705e373f271b

20163028776e
374e4c312f08
44742f0d5312
3a7f0c272217
407c5b483713
70482a27264f
273026383139
200f53334d3a
7f711f3a4435
47151a266124
26135f7f3a12
3a2b49142738
577b140c3923
6b251f151518
122521622b19
263c1530191a
66523e09191a

7f4845454519
69457f45144f
241c73264f73
0f7f61137f73
451e455a1d69
541745454554
4b1a45731a54
0b1969127f69
457345737f4f
5a1f21244545
297f5a16105a
1f7345144548
4517454f1245
45454545617f
452445484521
7f1516454f7f
5a4569454f7f

7f5746487f20
48676757135e
21195714674c
124c51245457
4b2048511457
571251515e5a
7f1851571348
361d731c4c7f
297f485e5751
571b20234657
2067510e0748
1b4c671a5757
540f4c511d51
574648674548
7f0e54676917
4b2e1f4f4c5e
7f724c484c5e

116446252920
137f53601139
130b62355145
1a5c7f6e545c
681e5f7f1216
3e0b196d5c0d
6b1819781a26
28433d1a5d6e
16501b5d6640
3d4d3d143a59
1a1a661e1638
0e302b4c1b14
502a7b13145c
56525b455b19
1f5065413a7a
2b1e35172f15
376d18212f15

69734569451f
5a457f48167f
291a461b4569
1369481e4545
451a45612b45
453b453e4548
732748731645
141645177f45
454845545a46
451b232a7345
287f121e2654
30455a165a4f
692a14692445
7f454569455a
73106946481e
5441170a615a
45456945615a

1f146f215425
297a3d6b1770
0b15567f5137
0a1b7f656e26
26127f721915
73221f176f4e
45241d1d2354
4d2233236570
283f12386833
107f66247f34
1f141b272928
1b76394e690f
5a31434f1445
4f0f741e3424
127b14061739
16313053190c
31633e27190c

4022107d4d16
55255b1c1f07
201d531c4435
161e5526347f
16233078153e
542f38155c46
3a1d3f67184c
1e2157207863
2a203d747758
1b1825237d6b
23370e212e72
242a7b19704c
4c1a66211d17
3d0c722b7f73
361569313018
50341e237939
2b162a797939

124548154545
612945454545
454545194545
454545125469
45304545450c
24451d454545
0d45197f4545
221745454545
456917454545
450c1e454573
451645454554
45454d174545
454545122c2e
454545054514
11224f0b4528
1445197f2113
5a4645452113

41467f3d7f46
634846424241
484248417041
4242584c4648
41484846465b
70425b704146
70427f464246
4c4c63427041
464641485b46
4c5b7f464148
484142427f63
4241487f4648
414870464248
41427f465870
107046464146
584213463d69
42424c413d69

547f5445697f
69454f732154
1b2045206145
1b4545265445
4f2445691845
454f45737f45
691148731c69
1b0f61197345
734569455454
4524694b524f
7f4f73263045
144b45154845
7f69697f1e45
4845487f7345
4f1845734513
452a1b454548
454545464548

6c6c5c425c4e
42385c5c424e
5c5c6c6c4e7f
386c5c6c5c42
5c4e387f6c6c
386c5c427f4e
5c383838425c
4e696c42386c
5c5c387f386c
4238425c6c42
5c424e4e6c5c
5c7f5c5a4e5c
6c4e5c6c6c38
4e387f424e42
1e7f7f5c6c6c
7f5c1a5c4238
383854424238

18444b274419
356e620b2517
1a201a384529
15214b35562a
1d163c7f1426
73221b244951
572e126f2d5c
7f7a191d3c06
1a311b283c46
57507f232b33
16211d0f2724
23343d7e7254
36121e2d1e30
395b12246e32
1e4f3c5a3d4a
27227428170f
2c377b1e170f

5e576751722c
46487f4b1367
1f235711574c
0e7248127248
4530547f0e48
4c4b5167575e
691c48671767
1414481d4657
67467f574651
460b1b48167f
1e724b2c314c
1345511a1748
547f674f244b
515e574b5748
7f0d4c545416
4c2712484c48
464846544c48

164548694545
614c45454545
454545214545
4545451f5469
454b4545450f
72452e454545
69451d7f4545
181945454545
456925454545
451929454573
451845454554
4545450c4545
4545454b4848
454545574546
1d164f464513
2845117f210e
5a464546210e

2830161a2319
32683d6b1b60
231908415550
1557385c7642
510d77561e21
3d1a1e27690b
2a151a161e3c
757f3d0f6726
174116052d1a
7b4a7f1f0b25
271b30152912
1513687f0814
2726161e1120
0d0566192c28
145230204d31
093579672513
69713e3d2513

6c6c5c425c4e
42385c5c424e
5c5c6c6c4e7f
386c5c6c5c42
5c4e387f6c6c
386c5c427f4e
5c383838425c
4e696c42386c
5c5c387f386c
4238425c6c42
5c424e4e6c5c
5c7f5c5a4e5c
6c4e5c6c6c38
4e387f424e42
107f7f5c6c6c
7f5c0f5c4238
383854424238

386c6c6c5c5c
385c5c4e7f4e
5c7f4e4e5c6c
7f6c6c425c7f
386c7f5c5c4e
426c7f5c5c7f
7f384e4e6c4e
7f42427f6c7f
5c6c6c7f7f5c
5c4e385c5c38
5c7f5c6c5c5c
6c7f6c425c4e
6c5c5c5c5c6c
6c7f38426c38
7f6c5c6c5c38
4e4e116c4e7f
385c3b3b4e7f

451945693a1c
45482b261119
232b441e2945
121a111e0324
45151b451f45
452645274545
322569452245
082345114517
384547454545
451d2f304545
1945221f0e45
11453e1c4534
25290f2b1145
45450e454545
451845462112
45191a274545
5b4845454545

481736493524
5e73454e2c26
20181b173577
181e6b25451b
3f1553171d7f
391c315b6e1b
3a3a7d731764
1f177c1e6b59
3958563f216a
7722251c404a
0b3d181f2367
14403e12400a
23216c5c1d66
5d7469436e44
441d3534481e
7c300f63597f
0e6e7a43597f

1c1a31221628
193534731b2a
1a106c41271f
24335e7f1b2b
3f1b1d6a2124
6219275d1842
4512137f2248
2d461e153f05
31521048273c
454b41317b62
251b11171438
1c5425407343
572d65451a47
49692046552f
113a3d32497a
141d37213118
194438333118

7f4845454524
69457f450d4f
111473174f73
117f61197f73
4517455a1c69
541245454554
4b2245731754
231d69157f69
457345737f4f
5a0e181e4545
147f5a1d1b5a
2273451b4548
4519454f1d45
45454545617f
450e45484513
7f1a1e454f7f
5a4569454f7f

2546451d5410
244545450d30
1c1747454545
0d4545454648
730f45451720
311e27454b45
451e0c15200a
4545451b454b
61241e454545
454545325445
24134515252d
2a2d4545454b
451d45451860
0a45455a4545
204509454b45
2a2e45481a11
454545201a11

4545455a7f10
454545450e45
2119570f4545
19454f1e7245
461b547f1f45
454b4845455e
7f1c45670e45
2211451c4545
674645454651
461b29484f73
28455a252a45
2045511a1648
546945451c45
455e45455745
452245454517
453016454545
464545454545

484672734857
485e4c454551
725748485148
4848674b4c72
577f72485e4f
485e46514861
5e454f454857
72694b4b5e48
575173574c4c
510d7267675e
7f5a4c46464f
725751234857
485e4c454b5e
5172674b5172
214f48674c67
485e1c517245
725754547245

196c211e7f50
297f657f772b
434a7f1c6812
75515a2a3b45
794640223d29
3643107f7b7a
2c792645742d
21176277372e
3752144f7021
481b2a343f33
34166a58772c
3561421f7148
7f403337324b
754659291a3d
16137959511f
1b49106b2119
6d6f602c2119

455a48734821
694e697f0c45
211b1b17454f
1b4845184f73
451e7f451745
45235a485a69
691d4554225a
29197316454b
3845737f6148
461c15313373
2a45731b1054
2a7f4518452d
451d455a1e69
4b4b4545695a
4518734f0919
5a301548544b
455a4545544b

14427f54606e
543b7f3b3b3b
6e5460176e42
546e7f6e4a4a
3b7f426e6e14
6e6e194a3b54
4a4a12603b6e
7f19424a7f6e
6e7f18545442
3b70106e7f4a
6e227f7f7f42
6e7f54156e6e
6e7f3b54604a
7f424a6e5442
1b707f6e4a0c
607f136e4811
3b424b6e4811

192c60212d1b
2368525e2254
182561405018
18213a402514
31256f36211a
4719215e1f4a
6a271a27192f
69762012774b
1c2922170f19
4a4975183311
370c29221e2a
304d49775c2d
2d1650311c56
2a2f27165a39
1f4e435d2346
221375640f19
507d53150f19

637f4646427f
7f4241702258
161a42205846
174241137f46
632e41421641
414648465848
701a4163195b
4c1b7f1e7f53
5b654648484f
421671164158
7f6363543446
1f58531c705b
635b4642197f
485841464141
42206353481b
410e12704841
704157434841

10487f694851
614c4857674c
454b4521614b
4f484c1d484f
4c4b57544516
7248234b4b51
694b1f57514c
26165e676951
574c24514848
481521487f5e
4515724b485a
4b7245164c48
5e7f544b4848
515148575e46
141351464812
2a451c572a11
675e61462a11

25575225110f
206b11441d23
190f5e436368
156b585e1a37
361e5e372413
681d271f601e
36101a431b3c
767c751f114c
163f183b3745
2d3f771d2962
111b30103428
163a657f1455
100e153e130f
670658361e1d
2b3c383f1a3c
2c2d79182818
122d29432818

1a7f0c312b71
401b1b543136
3b792d1b1b5d
3b281818425f
3c7f145a400f
4449260f303b
245914242a4c
261e39300e12
7f6b25274565
1c1c2e4b5047
341b326e2e49
49191024562f
7d7e5a1a4418
1d377c414a1d
1028563b6417
2634156d2711
556b2c1e2711

484672734857
485e4c454551
725748485148
4848674b4c72
577f72485e4f
485e46514861
5e454f454857
72694b4b5e48
575173574c4c
51427267675e
7f5a4c46464f
725751154857
485e4c454b5e
5172674b5172
114f48674c67
485e0d517245
725754547245

783c7947691a
374e286c2a49
2912791a1d62
111f59171d2a
2b1b7a22233e
5a274c5f790c
2e223d70197f
0a1a1d102644
211f37302423
5d1d241e1867
1b7f4f283562
291671146439
591f2e391a7f
56445a5c5165
732a45434e17
6a2f13294c31
2a3941354c31

376a752d531c
472e1948175c
1e1e5e10463f
1a743224016b
711e43751a7f
5727380d4b6c
281d7f0a2261
281573224f47
385845616226
150f1f3b7e2d
223352143a4c
2e632b147125
2527757f1c0b
407337201325
30157e263719
5f1d132a467b
0a084d53467b

134126242518
3157380e1a21
0f1c4d421172
1a17217f1461
20215b7c0f26
411316502468
742620231246
3c35431e250b
230c16197d17
7155511d1e79
192312191e2f
0b740d4c6222
282d7f17153c
57782a0f344b
16542624317f
1d1e2d0d2815
7f60633d2815

4c4b6c6f4215
713d3f75214c
2a1934135124
194e2d184461
1a10373b262c
1e2b7f497c06
211e491d2049
2b1c47164f33
0e4a7f787a32
3d0c1c3e6855
33281c191d6c
22370018113d
3c2c2d301c15
1b5b5659687e
4d095f3d221a
7f3519235b2e
567633725b2e

3645721c5e1b
7f51515a1a72
25113e5e5a4f
147251575123
451d4f48191d
57212c725772
51241746195e
4b48481b674c
0b4f1a4f5757
4c4c48485e48
4f174f2b1e45
69574f485117
2a237345164c
5e4551516957
1c4867516751
2c164846150e
484c6946150e

3d29507f282f
543c24791d6a
17161d1c6023
17114e2b464d
511c321f1f39
742a387c3b52
1323457f1755
2017021a4232
362c3b755d52
121b3216266f
3738401f2279
1b4f1414213b
702552692038
3e1d7e587c7f
3b1e647c0918
67270f0e7f31
404c2c7c7f31

1e6c4a2a4c4e
35337f147f7f
3d410e25651a
7a584e121636
7b2a19755808
3c3f2b6f7f47
2870216b745a
160b41794f16
38771f35562c
4518102a7011
3b2067447c23
3b7258152a58
764c55763b3b
7f2226494b22
24283c72742c
2148177f152d
175d4e3b152d

1973451b5446
48455a7f4f45
7f454f176945
4f4f45246954
54457f454619
23540d45694b
454f7f454f7f
2b19614f450f
454519184845
7f195a5a4b45
7f167f5a484b
4b611b544545
54454f454b12
4545693b4545
0b464569451d
1f6115451b1d
465446241b1d

454245693d21
45271b4d143c
162502184145
184c551a442b
451915451745
451f450c4545
181269451345
191745154506
154524454545
451d22334545
274513092745
2e450b144535
4b144b2a2745
454520454545
452345461d24
4532184b4545
0a1745454545

176e424a7f6e
6e7f607f7f7f
6e5460133b60
7f606e546e60
6e3b3b3b600f
4a6015603b7f
4a3b7f3b7f60
3b10607f6e7f
6e6e0e426e6e
3b3b736e3b42
6e123b7f6042
604260107f6e
606e7f7f6e7f
7f6e3b7f3b42
19606e4a6016
3b60154a7f11
424a7f367f11

14141f283029
412929132333
241b63390639
174241387417
0e2372371b28
40331f1d7f69
6a26170b1a4e
7f7f291f3e26
1b3f1f4c3414
644e7c1c6f5a
3a1a4d1c2812
2a3e12714f14
30161a432032
542770103729
0f5947731539
2c197f1d1214
333020201214

36382a3f392c
3e4c4d4b162e
181a571e7371
1f110e1e414a
2c1e161c147d
42292a066e4c
3210783d1551
22102b1b1017
462e427a6b0f
2c20141c413f
21425c272549
176e2d175316
321a42101f18
2a677a5c3b49
372224172a1f
6726122e3674
5b334d503674

176e424a7f6e
6e7f607f7f7f
6e5460153b60
7f606e546e60
6e3b3b3b6016
4a6021603b7f
4a3b7f3b7f60
3b13607f6e7f
6e6e11426e6e
3b3b736e3b42
6e1d3b7f6042
604260177f6e
606e7f7f6e7f
7f6e3b7f3b42
1c606e4a6022
3b60164a7f12
424a7f367f12

1e2e221b6c23
2c30796c201e
2211364d6e2c
1e3f51740c27
3824637f2817
4b3814255b6b
57101368162f
7f751d18707c
1d560f162862
6f557f3e0f51
261c2517271f
2d5a3e742936
51391f0f1c3d
6b7156454453
1e59376d5a2b
303d7a211618
426b224c1618

737f4848464c
5e45514c575e
486757614c4c
5e51485a4c4c
675746724869
5e4c4b48484c
4c5148675e45
7f4667674b48
5145677f4848
487257485151
48465e57484b
48454b5e4c48
514c57464867
5e45514b4867
4557484c5e73
5e481445544f
725e4569544f

22454f54734f
69734f694569
455a5a116954
45545a6e5a54
5a4f4254450c
45451a48457f
69451345487f
451861454f45
4f4f27454545
4f612b456145
451c4f4f5442
457f48147345
735a48544569
54454b454f48
0d69454f451e
607314454821
3b5445454821

4572574c7f23
4c5108722572
211a48167f4b
105e461e4b5e
1d1d7f571772
5731465a1a46
462b7f46134b
181548145e72
355e67515151
5e21142a4845
254848182545
1d4c4c164c51
5a19724c1d19
727245454c51
45265e577f25
4815104b4c72
48735a7f4c72

39675c3a6125
7a2f59292b4a
131e2014177b
1b596c204f3b
5f164016167f
4219315e2463
27387f24174f
242546315331
1d4153543b6a
792034141b19
1339370e455b
1a2a23175623
21187a3b291d
625c37391d3e
2f1717363e16
69151d434c76
323d762c4c76

13621c1b1b30
27455a1d1f45
1a1d454c5d4f
1b447a7a3e24
382545591624
71281e437733
452815141021
2538311f3f57
342b152d226c
245b4f265328
181e241f1f24
1b2b43477025
253431201d59
0d555f0d2d2e
194d1f245d7b
2d302e24261a
254e5425261a

416725521d1a
67126427187f
15193d247673
1e5860154a32
54237f48182b
4f207b51551c
260b3d7d1522
2c1b15153b3e
3d1579783161
39201c1c7d31
332c6d281b71
2822761b4623
51261a1e1921
6c634e507f77
3f1826741f13
7f1d162a4e31
337f787c4e31

3051450f251d
114545451520
151412454545
0f4545454639
281745451415
471420454b2b
451d1b251e35
45233c1a4528
610e22454545
454545372045
101b43182e19
2f1c45452926
452245452119
4a4545264517
1a451f450845
2a2745191e12
454545261e12

410b4b664125
7127031b116e
212425117764
184d0d2a4a6b
53136a32233c
4023265c7f1a
1b2143241253
231b54236844
1a583c7f1753
691f2f2a735e
273425242068
227677190748
651648651a30
26394f294a59
411b7f7a2316
3b3b19437739
4656257e7739

166e424a7f6e
6e7f607f7f7f
6e5460193b60
7f606e546e60
6e3b3b3b6011
4a6020603b7f
4a3b7f3b7f60
3b17607f6e7f
6e6e17426e6e
3b3b736e3b42
6e173b7f6042
6042601c7f6e
606e7f7f6e7f
7f6e3b7f3b42
10606e4a601e
3b601a4a7f1f
424a7f367f1f

41467f3d7f46
634846424241
484248417041
4242584c4648
41484846465b
70425b704146
70427f464246
4c4c63427041
464641485b46
4c5b7f464148
484142427f63
4241487f4648
414870464248
41427f465870
157046464146
584216463d69
42424c413d69

7f4861352b2e
471d21242813
1b1c4b1b5027
1b17782a6e30
72263d6d1c58
4b194c306557
2613327f1f44
281a6f18797d
18322c597f69
7728212d2a4e
2077301c2863
2a1d5a18224a
3b343f05186f
5f425a5c7f40
7f146950411c
6b1124177237
1b417f607237

0f4657237f67
3225763b3557
7f101b151a1f
37222a1c7f26
1a326b3a7f1c
1b7f18551939
1a281b5d3f7e
15126b2c1c28
327f1214622a
192a157b5976
7f1b65354e1f
7f220c167f7f
59560b0c7f30
672d4e2d5a43
153326357f0f
1b7f114b1a17
57434f421a17

274320252616
272f286a2513
111b1944661f
19687b356457
3d2d64612321
5f1e1528083a
4b180c431d53
70781a17766e
164317261c5c
0f48661d4b6a
1b1e40262f20
156d4178164e
1a1c776e145b
2b4623372a26
155c564d4d3e
19247c0c2314
784f5b2f2314

69464846691b
69450745244f
220f45236945
1d7f731b7f61
451945452069
452145454545
4515697f1554
2612731a4545
1d4545734545
691b211f4845
287f45123445
2b4545194545
451e544c1b45
697f4569457f
691f45455a17
7f2c1746455a
5a694546455a

11487f694851
614c4857674c
454b451d614b
4f484c16484f
4c4b57544512
72481d4b4b51
694b1457514c
1b155e676951
574c1c514848
481e2c487f5e
451b724b485a
4b72450e4c48
5e7f544b4848
515148575e46
161651464815
2f451757160f
675e6146160f

17485a16450e
4b4845693322
190e544f5461
1b237f734845
451b487f1714
451317464545
450f0f1d0f46
7369481a4845
2c7315734f73
454b4f220e69
152145212745
17305a454b4d
3b12454f145a
454669481f4e
1b4f0f0f455a
1b154554120d
4529457f120d

174f47274173
1c7a7f712f01
327d0f23595c
413b321e5b4b
047b77622c11
2f202756407e
494b290a303b
28114032293e
7f62253c1070
581f28405321
2c217d7e2f38
3d215a204f32
277c79123044
4f0a653e423f
1d2a44395c1e
2d2e0c591b16
7f7b561f1b16

223d1e2f5262
41535434401c
407614164160
263f6f1a6f43
3b730c483816
462b155d6844
27421051357f
1d1b2b43187f
776618263e4c
732023481559
48154c6a4424
3732671d7174
436d353e4478
7c2f3b366034
1a237e637e1f
303b164e1e1c
406959251e1c

547f5445697f
69454f731e54
172245216145
0c45451d5445
4f1c45691845
454f45737f45
691c48731269
151061137345
734569455454
4518694b0b4f
7f4f731c0e45
2a4b45124845
7f69697f1d45
4845487f7345
4f1a4573451e
452010454548
454545464548

547f5445697f
69454f730b54
132045156145
1a45451c5445
4f0f45691445
454f45737f45
691948730d69
4c16611e7345
734569455454
4519694b414f
7f4f73541945
234b45184845
7f69697f1f45
4845487f7345
4f1645734519
451d1c454548
454545464548

155c72131618
2c7f0d331c25
19214a3a6c2c
150527761c26
3c2176252422
3d2f153d3e57
7422170a1358
44355b1d3b78
3060185d533e
7f4f53347960
202115211a14
151d323e651f
4d217f3e142e
48140f41434d
15431f58137f
261935662511
78462c302511

3c305d702027
53073f151840
24234b194a7f
1e394d243338
1f154b7d2735
241f7f5c1a25
1f1b38252624
2120371c3b22
210a7f2a6874
1914200e2074
16251a0e1d78
154d49140a27
152a53411c0f
326b2a2d4a7f
461516264b12
7f0c1c3f4f2c
4e0e777f4f2c

2f2f50202f16
44333d141c1b
1c1240791422
084e29687235
6e137e59191d
492326462c6e
261b1c4b1544
4e261f1a5a59
3053255b2933
5d7f68225324
21115d2b1622
23147f4a1830
1f176d501b10
1c54562b5257
157f3729273e
3d2734702215
7f4746202215

435e32733c1d
4c471d3a171c
1416591f4b41
1846172d577f
2c202e722033
24203f39720e
24214e641717
200e3b105b1a
34214251760a
33212a20113a
214343200f7f
221b53154f0a
0f1230390f39
3a3f2f53377f
3e215a3d1a15
6623165e7f2a
2f1c45557f2a

184e631e4956
3e467f53727f
4d434d1d2150
7a433f18321d
37300e7a500e
445b1f411e54
3f7a1f3e742c
35180b7f7060
31591b2c7676
4f0f13537231
401a6d367f32
54260a1f474d
52486e39326e
6d4329490b4d
162a37777221
12421b421d1f
200a27451d1f

484672734857
485e4c454551
725748485148
4848674b4c72
577f72485e4f
485e46514861
5e454f454857
72694b4b5e48
575173574c4c
511c7267675e
7f5a4c46464f
725751114857
485e4c454b5e
5172674b5172
174f48674c67
485e14517245
725754547245

7f2e7c30191b
566d0b332920
1f1a371a301b
11623d1f5555
0e2a3e271557
572b42516518
24103c0b2046
2512401b137d
176c25527535
451c1d22246a
29765a1f1958
1f50341f5a49
691d46461913
2f357d714e41
7f134c205922
641e1f4a5a30
195813475a30

0e5b672f7348
29542f24424a
7f164513452a
2e480c15452c
42316f127f23
477f18404b36
2e3225693b62
1b1d4e28134c
2b5a15627827
231b23620947
7d163c274c27
7f727918487f
744a453d7f56
5541542b4d4a
1d1f48255513
22731d6a1b1b
6a55663d1b1b

1f251e312726
573922421f3d
27153e493c4c
25373934470b
3f256e241723
1b2023395c66
4522117f2448
6e7047194349
3f1a1f0c303c
4550683b1150
351729152044
1d414e7a242e
142b2c451675
062053353916
18531d203b46
36276d28150e
22483634150e

2c535540301a
3a68081f186a
101945213a63
14394b1e0a18
201718761874
472a343a134d
40177f5a1a38
28195d0f7f53
2c20330f6e72
4d141213505b
17402e142144
126e7c1c2b4c
211e6e5f2043
3d5a353f735e
451f1023321c
72091d6d2f76
7b4c42552f76

187f57345a52
11333a712e78
7f30341e141d
31394a113146
323d265b7608
467d181b137f
3a252120447f
17155a2c6e57
61271f631279
2b1c237f5f4b
7f115c493c2d
7d565e1c4870
52461d177b72
2031244c6735
181c7d655d0f
2c6c147f0c0e
6d1526520c0e

184545284524
544b6145204c
21184545375a
1a4b45454545
4523484b1d1c
261728461f48
450d0e7f1409
4f484b197f24
102118454545
4545451c4546
2d1b45161434
1445444f2650
3d3545450e20
4845455a5a0f
1d45455a4545
7f1448612115
454545692115

1f4672234c7f
433555373510
346e6f174f27
28561c267041
0e7f435a4011
22311e605f35
4a4126442662
26137f332e27
7f5a19463160
4b172d403b3d
3619767a292a
433817127167
4476425d347d
21431a3a304d
1e165e105327
1e4a0c73181a
3d2a332e181a

384e38425c5c
427f7f6c6c7f
424e7f5a5c6c
6c386c6f6c6c
384e4238427f
7f42426c7f38
7f5c427f6c5c
3813385c5c5c
5c5c424e6c5c
5c426c4e7f4e
5c555c4e6c38
38385c137f7f
5c5c6c6c425c
5c42384e5c6c
0e387f4e5c38
384e104e5c5c
426c4e4e5c5c

453f46545b2f
546e274b1a6d
2a240921453f
12531e1f4809
18231b192c45
432954422a0e
131c2f391c3e
1e187a103225
48463a4c190b
461d1b267c7f
294545291c60
234535130a26
6d1c4f4a187b
450979453823
452c311e451b
4b3918147f37
162a14487f37

425465286531
4c3372592449
292b101e154f
1f1f2c224811
1f1f2d461f45
452f3f187b35
1d3245371a6d
251312206147
4d4b4f334c26
451e211e2e10
2039662c3440
1c7f2e0d2d5b
332152451f6b
5f7b2c195663
331635381414
4d271b374845
16445c304845

1550202e0f11
0c212e382068
1c1324472e58
251b607b2c59
69195d102023
141d1c68280b
7a2814131218
453d56192557
0b430e5c3072
7f4c502c4d54
15184a082118
1657274e142a
30257a791846
1a350a3b3d1e
163e0057427f
2b2430732516
216030272516

42303e592d20
571a525c2753
21141a165b77
283e052b395c
51123067183a
50227f480131
3c28440f2542
121f4d251028
1b477f2a3b22
1e14201c6c76
1a2c26202968
1b4b310e4639
571404162317
3d422e2e697b
451144114418
7b1919114c34
400c2d774c34

230f3d0b1d21
2f6b636f245f
2416757f2847
110f51583f3d
6419533b1027
2a1c28605c34
431f125f1665
4d20611c7175
284c1b5e0b19
0d7f7234782a
2e1950351b3b
252c4d4a1b41
4b267d171533
416f194e540f
227f284f2843
201c2f591e0d
7f1e7f561e0d

4572574c7f3a
4c5120721e72
131e481d7f4b
145e461f4b5e
33267f572672
5721465a2e46
462e7f461a4b
2312481d5e72
225e67515151
5e25361c4845
1d4848232245
154c4c174c51
5a28724c2013
727245454c51
451b5e577f19
482d1f4b4c72
48735a7f4c72

13487f694851
614c4857674c
454b451b614b
4f484c12484f
4c4b57544509
72481a4b4b51
694b1057514c
1a155e676951
574c22514848
481d20487f5e
451a724b485a
4b72451d4c48
5e7f544b4848
515148575e46
1b2251464822
28451e572317
675e61462317

1a2d2f1c3e55
19733e387c75
3a4774182964
771c7118104d
2c50245e4f17
424416500b26
307f1a477f1e
1d175378165d
4e3f1a410c12
43151d443a39
441971556820
3c150a152745
7f4120343a3f
324d29234e46
17132f4e5122
195210791b24
4c31200f1b24

452a46314b2d
542f0b4b1d0e
17164a23457f
17437a1e0e41
291d281e1d4d
3a0f4c59184f
2b19382e1512
1a1517123150
3552363d7951
69212d193226
2e4552212e49
13457f16192c
32284f4b2232
45374745774e
451f301e0e17
4b261d087f34
3156664d7f34

096e424a7f6e
6e7f607f7f7f
6e5460173b60
7f606e546e60
6e3b3b3b601e
4a6016603b7f
4a3b7f3b7f60
3b1f607f6e7f
6e6e19426e6e
3b3b736e3b42
6e173b7f6042
604260127f6e
606e7f7f6e7f
7f6e3b7f3b42
13606e4a601a
3b60174a7f1b
424a7f367f1b

194b4b234517
54466145310c
12227f690845
114b45454561
4f1624691626
392211462548
4519127f1a22
4f484b1e4f04
22161f616145
45484b1d4f46
2c1745151336
1e48034b1912
1b1d2a45171f
480945545a37
1b4545454f46
732e48481516
544545691516

544545454829
7f4b45611361
131e4f184545
12457f1d4545
542f46450c73
4511454f7373
461f45541245
221269205473
484f544f695a
450c18114845
165406212561
165a611e4545
4b1a2d45167f
5454734b4545
4b215a7f450f
541218457f7f
454f45737f7f

386c6c6c5c5c
385c5c4e7f4e
5c7f4e4e5c6c
7f6c6c425c7f
386c7f5c5c4e
426c7f5c5c7f
7f384e4e6c4e
7f42427f6c7f
5c6c6c7f7f5c
5c4e385c5c38
5c7f5c6c5c5c
6c7f6c425c4e
6c5c5c5c5c6c
6c7f38426c38
7f6c5c6c5c38
4e4e1d6c4e7f
385c3b3b4e7f

1d7f45213017
200c45482445
1c1818454c45
18463245454f
351f2e451c1e
1b3623454546
7f12193d184c
4545271e4545
0e4019452e33
14457317453e
1e170f0c302f
1e3a45454830
201445141245
454b69366018
194545300b34
333045292717
4b4245462717

41467f3d7f46
634846424241
484248417041
4242584c4648
41484846465b
70425b704146
70427f464246
4c4c63427041
464641485b46
4c5b7f464148
484142427f63
4241487f4648
414870464248
41427f465870
167046464146
584216463d69
42424c413d69

1d266e247a7f
3a7f58395320
467f681d7f34
2d2e07203e0a
197f16073811
1e46277f4840
2b3d1e532b69
1a0d73465f61
73492a53131b
7f22264a096b
311b7f7f491e
3f2276193053
687239294839
67317f2a5b4e
1b161c2f5f16
1b3f17471520
1a283f171520

4545455a7f11
454545450b45
1826261e4545
11454f260d45
461e0d201045
450c4845453f
7f11450c1845
2013451e4545
0d4645454941
091b0f1b4f73
1a455a261345
1b45631b4910
106945451d45
453945453845
452745454515
452811454545
2f4545454545

456445690d12
452e741e1e28
221b3a151f45
2944431f5231
45157f451e45
4529456e4545
192269450e45
231e4516453a
0d4551454545
451520374545
1e455e191e45
2a450f1e4558
35183b0c1e45
45456e454545
451a45464117
453c1e3a4545
415545454545

0e0a71292b1d
46494a0d1636
1c1a444e6625
2110517a274a
7c15262f1928
45221e1d2a12
7f241f391507
423736155b27
132e1b2a3865
454f49283646
201a53251f29
263513451a3b
3c1a3c560d6d
303065262221
18466e5a0c7f
35242c782313
3977764f2313

7f5746487f1a
486767570e5e
1b0f5714674c
204c511b5457
4b1e48512057
571d51515e5a
7f1751572548
251e73164c7f
367f485e5751
571b1b1a4657
1967512f1148
244c67235757
54224c511851
574648674548
7f1454676911
4b141b4f4c5e
7f724c484c5e

36485a1f451f
4b4845692332
1b24544f5461
0c2c7f734845
4516487f1a1e
452421464545
451919192246
7369481c4845
3d7315734f73
454b4f313669
2812450e2845
21395a454b29
4c1f454f155a
454669482e2e
1c4f4120455a
3a2545542c1a
450e457f2c1a

7f4845454525
69457f451e4f
261d731a4f73
127f611e7f73
4521455a2969
542f45454554
4b1045731254
211669157f69
457345737f4f
5a1325384545
227f5a2c245a
2f73451a4548
4520454f1d45
45454545617f
451d4548451c
7f1a19454f7f
5a4569454f7f

384e38425c5c
427f7f6c6c7f
424e7f5a5c6c
6c386c6f6c6c
384e4238427f
7f42426c7f38
7f5c427f6c5c
381c385c5c5c
5c5c424e6c5c
5c426c4e7f4e
5c555c4e6c38
38385c167f7f
5c5c6c6c425c
5c42384e5c6c
14387f4e5c38
384e1c4e5c5c
426c4e4e5c5c

205f2110603f
236871157649
33456d271249
745229287522
4b403e4d3728
2f231f7f7f4c
2d781b2b7948
0c11477f126b
6c711f211540
261220276054
33162b3b7f37
35077f143b54
4f503f6d3830
5d5c77482b26
13136561481d
2f410e712420
313f0e382420

783173342e1f
1f32201d293e
15214a226b5c
19077c191b65
551751381c4e
34274d184410
3d123e5d1a69
191b1615702f
314732684666
112427180e7f
257758261d45
1a2b0d175f39
20223b621b6a
20297f5c423a
78166b0b371c
6233180a593a
170e0f76593a

16427f54606e
543b7f3b3b3b
6e5460126e42
546e7f6e4a4a
3b7f426e6e18
6e6e164a3b54
4a4a26603b6e
7f19424a7f6e
6e7f13545442
3b70186e7f4a
6e127f7f7f42
6e7f54126e6e
6e7f3b54604a
7f424a6e5442
1e707f6e4a12
607f1c6e4810
3b424b6e4810

1b2d412c3823
1c673b65261d
17220c3d5d60
1f11692d7535
39247f210c1a
552625421a7b
512812611a36
7a7d15205366
3a4c223c173c
1e4075135803
18164e09253e
2a5a577d491a
50085e7f1f7f
687e40395f4d
184c634d5836
301b7a791b18
636073301b18

38127f502722
7f393b3d206e
161e55194c34
18213419213a
0b2d2c64157e
791c3074080d
191f7f1f1911
1f174328440e
180f3d552650
0b0d282e617a
174329323354
232b26133731
1c281d06144a
4a67574b6a40
51173835681b
742b1a603f75
64563c313f75

386c6c6c5c5c
385c5c4e7f4e
5c7f4e4e5c6c
7f6c6c425c7f
386c7f5c5c4e
426c7f5c5c7f
7f384e4e6c4e
7f42427f6c7f
5c6c6c7f7f5c
5c4e385c5c38
5c7f5c6c5c5c
6c7f6c425c4e
6c5c5c5c5c6c
6c7f38426c38
7f6c5c6c5c38
4e4e176c4e7f
385c3b3b4e7f

274f29190922
2b343d40226f
21161a412c1f
1d6b4f6a6825
66246750241b
7421180d741f
2f1417332048
6c795a0f2229
254c19401009
1b467f2b335f
15182d1f0e2d
1c5f71796f3c
2135124d1547
1528092f6240
1f421f3d4931
211f7f302415
3a3f5b502415

1a6e424a456e
6e4b607f7f45
4554451b3b60
7f4545544560
6e3b3b3b450d
4a4518603b7f
4a3b7f3b6160
3b18607f6e45
6e6e1e426e6e
3b3b73453b42
45223b7f6042
454260107f6e
606e45454545
7f6e3b613b42
13606e4a601a
3b45104a7f13
424a7f367f13

255663103d7f
18554f6c3f49
44797c0f2d4a
272069146d22
417d2f412a1b
3632203f6653
1f3512302c24
28172649112a
6e251f22625f
131a223c562d
291266793425
4a133315396e
7a6f5f50464d
7a3135531837
10237f5c2e1b
22531017191b
5f38423f191b

69734569451e
5a457f481d7f
221d451e4569
136948204545
450b45612845
453545454548
732248732045
102145167f45
454845545a46
451b1d137345
2a7f452f2054
25455a0f5a4f
690e540c1745
7f454569455a
732f69464819
54141246615a
45456945615a

31544f45461f
75485e3f1955
1e163d2a6e58
173e48165845
551d5814247d
7f22444a4b05
262c7d171938
2f220828576c
0f16555e265f
271e312f3831
1a354810214c
122e2b1a1f45
171d7a2b210d
22146b646e44
38187e73411b
72211e4f477f
47464c3f477f

182b511a3226
1163602d2a67
1d0d68393c59
25654e7f654d
741948232327
5a181d31362b
7f14172f140b
3e333b16405a
4516182e6164
41504c281b7f
1c1e6f2d1c39
272245566b59
1a26592a184b
583f5c5d4051
253f1a2b267f
21142d3d1b12
5d2c31451b12

494151606416
414474372330
2511511b133d
1d501820533a
4a152647203b
5032765a2146
291f3359172e
172449192c3a
2e467c4b1b76
5f16122a255e
1a323b1d287a
273269173b34
30110b2c174c
2c6a6b2e4373
56184d45541e
6a241a0b5725
154f2a535725

217f45112410
0b5b45481945
251c2c454145
14463b45454f
6b1b43451a2e
4b211c454546
7f1b12361c0c
45453e214545
3c1c1a456331
48457319451a
29143e1a1b28
1d114545481d
1c25451d1345
454b69380407
1345455f0c3f
25344530180f
4b360c3a180f

455a48734829
6912697f0d45
1e1a061b454f
1e4845244f73
451f7f452745
45275a485a69
69124554165a
2e16731c454b
3b45737f6148
46162d221e73
224573191754
1f7f451a4525
4513455a1b69
4b4b4545695a
4522734f4e2c
5a362148544b
455a4545544b

125773285649
425d1c387235
4a3c1c1f1d1f
7279520e2337
5b250c3f420f
2451167f3a7d
2d76112f785f
1f177f7b7a39
3b4823335739
6e18183b4558
351a1e2a7f26
494e3e164a4b
4e3c24552719
5e5c5f166310
18216b6f2727
26521b15251d
7b4c6d34251d

1f432d1f6c51
43302a367722
504a2a23576c
7f2954233810
604b32254f24
2e41194f3d62
29701c467c78
162115740f13
646414232a54
3e1a2d483a18
3e164d4e7f23
3b7a18222343
434f26344c39
3a24260b4342
191a2d28501c
25481e452f18
5c045b332f18

7f484545452c
69457f45204f
151973234f73
187f611b7f73
4520455a1b69
542e45454554
4b0f45731954
2d18691a7f69
457345737f4f
5a2d2d1a4545
1e7f5a2a325a
0d73451b4548
452f454f1e45
45454545617f
45234548451d
7f211b454f7f
5a4569454f7f

163567182345
12633f7f3d56
7f1b5715430f
3f534d1d4416
0d3f1615761c
497f0e407369
212b213c385f
3b1a2e2e4859
54631c4f7242
4c2a1a7e7c31
7b133b324d1a
7f3e46152877
684840397c32
463c5a3d0b33
1e22547f780c
237816442519
39113c282519

1b0b251f571a
161d70342309
192332465a09
172554356126
192136181024
3f0d1f332e3e
42240e2d1a4a
5a6973204511
3818171b351b
4a4a6928453e
172029133725
1b071a794c49
361f300f1c11
376324391147
1a5f0b2f474d
2b0b73151d12
2b6f124f1d12

455a4873481d
6914697f1045
1713221b454f
144845104f73
452b7f451a45
452c5a485a69
692145540b5a
25107315454b
1e45737f6148
4616132b0e73
1a4573300d54
177f4519450e
4516455a1369
4b4b4545695a
451f734f2417
5a261848544b
455a4545544b

386c6c6c5c5c
385c5c4e7f4e
5c7f4e4e5c6c
7f6c6c425c7f
386c7f5c5c4e
426c7f5c5c7f
7f384e4e6c4e
7f42427f6c7f
5c6c6c7f7f5c
5c4e385c5c38
5c7f5c6c5c5c
6c7f6c425c4e
6c5c5c5c5c6c
6c7f38426c38
7f6c5c6c5c38
4e4e146c4e7f
385c3b3b4e7f

1d1e16294b1e
30711759274f
20160d406352
13263f565e5e
581b4d5b2425
182d155c3a44
4d17180e1b23
7f7d78217f17
2e360f24165e
70447f3b5355
30196c1a2135
290a1e79724b
221475781426
095c3203451d
244268356032
2f2e7337111b
59567337111b

6c5a45425c46
42384b5c454e
4548456c4e48
4545456c4542
454e4545456c
45455c424545
5c4538384545
4e697f453845
614f3845457f
4238425c4542
5c42454f7f5c
46455c5a4645
45485c6c4b45
454554424542
19694545456c
45450d454238
454554424238

384e38425c5c
427f7f6c6c7f
424e7f5a5c6c
6c386c6f6c6c
384e4238427f
7f42426c7f38
7f5c427f6c5c
3816385c5c5c
5c5c424e6c5c
5c426c4e7f4e
5c555c4e6c38
38385c127f7f
5c5c6c6c425c
5c42384e5c6c
10387f4e5c38
384e124e5c5c
426c4e4e5c5c

710b244b0c23
745c546d2469
1028541f5d2e
135c23263f67
662453301435
492450160c1e
32202b401246
21157f184111
0f0e3959422e
331f1b0c7f1e
2274171a176a
1051651e310d
5031717e0e66
3f4a7f427855
762c36623219
7f060f5e6533
702a7a716533

4545455a7f0f
454545452445
1c2138164545
1f454f202545
462451201c45
452a48454510
7f24452e1545
3a17451b4545
351a45452928
221830374f73
0f455a233945
22450710563c
476945452545
452245452e45
45184545451a
453319454545
304545454545

1b4673185416
22487f7f1149
1c1316730d7f
2546734f5448
731845611d2d
11171b696145
451a1a3d0c0e
734545164f4b
7f4d10616969
28734f2e5446
2a2145191a2e
1310455a4517
4512457f1620
494b455a1645
207f33614b45
2a2473481c16
4646451f1c16

385d35746010
5f06410a1a25
15165b185b43
186b1e1e2961
0e0d530b0c37
78097f7e6161
452d41391d5c
1f2050176b36
11197e7f6c44
2b181b1c3248
1e234b111066
0c4d1b203e4c
0d2050011421
63527f3e457f
48123673591b
7f111d3e5c28
43702a5b5c28

1a257b122918
342b3f2a1d1e
161c2f7f0466
0e374d602467
471b50791017
1c2c22102f3d
411a1659256c
3d1d191b497f
180d1c4b2e3f
207f511e7f50
2717262c291d
170841417536
4b227c761b62
553a46396237
1b7f4a0a1241
2e1c31491517
652c51221517

40570a7d0c25
7f666e4b176d
1b1750162358
17165b215b7f
151e147c1f43
7f273b375f71
221f463e1c30
1b127c244e02
131d414e2725
5118292b2c4a
282d5c232a7f
25307517310b
351d7b20182f
4f024b393550
341d223c201e
3b2e18717535
714513407535

165a451d2146
402f4b194524
454845132b48
45454514451d
452345454514
4545201e4545
20451e2e4545
1a217f456145
614f1545457f
1e161125451e
3814454f7f1b
46451b224645
454818244b45
4545543d4542
196945454525
45451a452815
45453d492815

1313261b5153
1c156f447f15
384053162047
77270320642c
1d3e0d39431d
43351c655142
3a74213a7f1e
2119537e781a
436625384028
341822361d71
38202b4c6b1c
3779541f3f56
7f3d05243b54
213a0d4e6c30
17176c0e5516
204e177f1510
252d42161510

7f177a41632b
5b7128591f47
2623401e7160
14137f1c5238
0f1f72281958
391b4e203b2b
34123c4c1918
251165146d4f
40462c66503e
0d17231f7f7f
287f63211a6f
277f4b186e2a
62284e5a2559
606c41795764
7c1a73185217
611b1b0a753a
076e7f60753a

13487f694851
614c4857674c
454b4513614b
4f484c1e484f
4c4b57544519
7248124b4b51
694b1b57514c
1a205e676951
574c10514848
48231c487f5e
451c724b485a
4b7245154c48
5e7f544b4848
515148575e46
103551464811
19451c571c0f
675e61461c0f

204572275e22
7f51515a2a72
1713145e5a4f
127251575124
45174f481411
573317725772
51141a462a5e
4b484818674c
1b4f154f5757
4c4c48485e48
4f164f172345
69574f485112
151a7345234c
5e4551516957
1c4867516751
262548461d19
484c69461d19

637f4646427f
7f4241701b58
1c17421d5846
1342411f7f46
631841421141
414648465848
700e41631f5b
4c167f217f53
5b654648484f
421371174158
7f6363542946
0e58531a705b
635b46421c7f
485841464141
421b63534828
41161b704841
704157434841

737f4848464c
5e45514c575e
486757614c4c
5e51485a4c4c
675746724869
5e4c4b48484c
4c5148675e45
7f4667674b48
5145677f4848
487257485151
48465e57484b
48454b5e4c48
514c57464867
5e45514b4867
4557484c5e73
5e481545544f
725e4569544f

243d1c235123
211f0c501946
0d0e4f46284c
162244642461
231f5b6e101d
391f1f743322
27080e341838
7a7353216b5f
294b15637f5e
4b49790c3e16
1a1b46270f20
0d27587e1315
1e255611112f
5a1461302f3d
18435f250e34
20077d701b1d
734e252c1b1d

282d6d187f71
23226132313d
47785f21473b
3c6e32203f53
147f69294113
2848257f703a
2b39226b343f
2d1e0b352b7f
7f6a20410c53
3c2c204a6134
32205a7f2c48
3f31321b3660
517f604a427c
6a493725734a
1820256d7a1a
213710572921
447a48662921

1e402022767f
3d36273e4376
39794e16105a
3c6e37187d44
6772441a261a
21292c574443
243118173961
2819763d3f6f
724720563537
290f23460c27
351d517a3d22
36684d212562
6f715845464d
7655622c5c1d
182548466e21
322d122d2521
30762c192521

697345694528
5a457f48237f
1e2009184569
186948294545
451f45612045
452f45124548
732148732045
191645197f45
454845545a46
451d26267345
187f20201854
1a455a0c5a4f
6927321f1145
7f454569455a
732269464821
541a1655615a
45456945615a

2e31244c2926
5c13245f2377
131a2512253c
1b7034205269
732a2974157f
7f1e300e5c4d
3e2478241239
291e1d203373
1e4d4e7f6f1d
1d1616256b37
22375323154b
0e4a3c10641b
18127f251c29
56104d253c6d
39127a734c17
780b1d46487b
7a1c645f487b

154572285e22
7f51515a0c72
11180e5e5a4f
157251575119
451c4f481429
571314725772
51181346185e
4b484813674c
154f1b4f5757
4c4c48485e48
4f144f231a45
69574f485129
14187345114c
5e4551516957
204867516751
191448461918
484c69461918

44307f5e2712
74273d390b54
1a1722135a50
1935351d4d4e
531b64381c2f
72157918345c
1e27444a134a
25154d1f2666
16127d6c4541
7615242e2779
35312512225d
1f5a4f112d19
50272f211e2e
384f462b7062
4d192f645215
7f1f13445b28
736940595b28

31225219321a
403518351627
1a164e78155a
0b634f651d68
141f7d73260f
2a262161185d
3216192c175f
4e275d1a6462
414a1b671061
58765e374e69
231354172420
2f1d5239251e
372d58391467
3d3963245317
207f3f68224c
1a332f1f1f0f
5c2d0e151f0f

4832747f141c
4c071d311a37
1d184a1b735b
153d5520567f
55205e54253e
3d263c334a5c
331b4c211561
3b15761e7948
344a4357492f
481c2d247f7b
3035262b2c7f
1b7f5b154529
22315b152209
317f3835596a
342229583318
5239161d7732
1726437f7732

1c5a45212c46
372e4b0b4540
4548451d2348
4545450f452f
452f45454513
45451c5a4545
3c451b534545
18137f450b45
614f1e45457f
4814192b451d
2d19454f7f14
4645271b4645
454823164b45
454554284539
0f6945454521
454516451c1c
45452f121c1c

386c6c6c5c5c
385c5c4e7f4e
5c7f4e4e5c6c
7f6c6c425c7f
386c7f5c5c4e
426c7f5c5c7f
7f384e4e6c4e
7f42427f6c7f
5c6c6c7f7f5c
5c4e385c5c38
5c7f5c6c5c5c
6c7f6c425c4e
6c5c5c5c5c6c
6c7f38426c38
7f6c5c6c5c38
4e4e166c4e7f
385c3b3b4e7f

6a37622d1128
265d02711e1e
0b206d20401e
1a4229196448
582970780f4f
602245574b07
161d3177253c
2b2021163349
285a294e2a16
6c1e20245a7f
2672111d096f
205468191516
1c2549131a5c
0c326f6b5a2f
7f1349372117
5f2e1a4e5746
6c5543575746

156d31297d50
3d2c55364776
75192117601c
32781f1b1740
7c3d422f7315
1b7c1e581868
342627474054
261833354153
4536104e6f6f
5823126d4419
771c16375429
796a7e144e46
2f4c473e7563
246e42156755
1b20324a7f10
347f156b2f12
3e2f3d412f12

217f45245920
382e45481a45
1f1949452045
17463b45454f
191c11451c1b
492915454546
7f2e0b471a42
454520234545
1e4312452b5e
3e4573214510
1a13480e1d2f
1e4345454855
312b45202045
454b69204519
1d45452f4542
152f45111813
4b3d56151813

3d395c563919
76596d441a55
121e4417427f
19683a164d12
19147a24137e
51153414313d
21187a622916
2f0e6614211c
2047375f470a
731121142359
1b362f29283e
1415651d5b32
1d1756461367
413a593b6b33
4f1b75071f13
6126136e377e
095f6725377e

207f58345763
444f507b3262
702548247464
2b393a196f1a
35474e6e7f11
617f1b2c4865
353e144f3a52
262367337a4a
6359185a3f4a
4b18305c5435
7b112645532d
7f2f45221e7f
4f5820227a56
3e3f761a1642
19206e686b10
2b791f2d1d1b
3d1371201d1b

2b0a1a234d12
37175f192438
2211083e4159
1e187f582b1f
360b6c761917
1b35136b4a21
401c11701f1f
7f7b18186550
131519685429
4143771e3329
1e1a54191a22
122b6f74251e
3f1d2e241829
417f3f351240
27483f114231
232a7e12251b
46653a18251b

1b661c193877
0c55701a384c
307f311a5e3a
342c3c1c4030
777715193f10
193e26265d55
21501f22304d
21154b3a6e1c
713e1d6a4340
79211b31595a
3b137a7f352b
42476b196a4e
6a7f5a6a3851
337f574c5d2f
1a220c3b4e18
194a102a2715
4d141a1d2715

4173453d5446
48455a7f4f45
7f454f416945
4f4f454c6954
54457f45465b
70545b45694b
454f7f454f7f
4c4c614f4541
454541484845
7f5b5a5a4b45
7f417f5a484b
4b6148544545
54454f454b48
454569464545
124645694546
586118453d69
465446413d69

544545454827
7f4b45611e61
22184f204545
12457f2b4545
541a46451c73
452c454f7373
461e45541845
151d69135473
484f544f695a
451c12224845
1c54141f2661
285a610f4545
4b2721451a7f
5454734b4545
4b265a7f4519
54340c457f7f
454f45737f7f

42677f39602e
7b3658452847
271e560f753f
1d62402b723d
761855171f76
56383c187c3e
2a2478561a65
2f1a17252515
313b5727380e
07161f1b4e26
1d391f192041
2750121a1c2d
221d776e1f4e
4042783a1b65
31137f6b4920
5d33171a4b79
384a764a4b79

044729263f17
3c5f613f2725
1e18293f556e
1e3072482f52
710e233f1f16
2a281845735f
4813130c1131
4f35740f2d69
3a15137f2f3c
734a48351874
171b221c1524
184f5c61341f
4a110a412752
21541f17101a
1d451f204a72
18232c662715
67695f2a2715

462a6269142b
46572a741559
121118243b7a
1c1b61205939
7c21216a1d3d
411c7f3a3f5c
36243c6e1f0a
30193a1e4231
1f387f543e17
082216173461
312d4d222e79
2335141a5f34
57167254164f
7a7a66464e4a
481e0e492f19
772114296322
576c27486322

27047b123b1c
253038101b6e
281b257f446e
0e2374633655
29121f752418
351d1c396818
4f081b582615
4c2565185464
1a4d1b24542f
1b7f60397c12
2b0f6b2d1e30
2d2e39451412
5013350c1967
172b550c3a2b
177f66295236
342731701111
556412411111

455a4873482b
6925697f1145
13104f12454f
164845354f73
45167f451045
450d5a485a69
692b4554125a
1d1b731f454b
2e45737f6148
4618290d5973
2945732e1f54
1c7f4520451d
4514455a1969
4b4b4545695a
4517734f0920
5a271748544b
455a4545544b

1e2e51144241
2a1a363a7a72
43426c1b6f1a
7f7f36141252
713a7245530c
724420341822
387e167f7e7d
1b210f783946
375c193c5a1f
1416114a4031
331f4242723a
492c39197853
51435b163252
7b1e4928241c
16242f2b1f28
2f321d7c1c1c
551b21371c1c

2260670d473e
432f3646795c
3a4016196b36
72722c233e1a
1946784e402a
2641107e2451
437f26357669
220c2c711151
4f7211260f0a
511f2a321134
35171d417022
2a5939144e48
7239561b3b73
4a166514114c
1511344d371d
2c4d11590f23
706714270f23

7d3748392e28
3c68361b2368
1f0e2d1d2725
1e09251c537f
591e6f211757
541646642368
2a13382b1553
131e321d3543
2e522a30601a
251e1c202b54
107f34202e5d
2c582b245e24
4b160e26185e
305c397e2050
78194e164517
48112d546f3a
745b2d6d6f3a

6c6c5c425c4e
42385c5c424e
5c5c6c6c4e7f
386c5c6c5c42
5c4e387f6c6c
386c5c427f4e
5c383838425c
4e696c42386c
5c5c387f386c
4238425c6c42
5c424e4e6c5c
5c7f5c5a4e5c
6c4e5c6c6c38
4e387f424e42
1b7f7f5c6c6c
7f5c1c5c4238
383854424238

214b4b324526
544661451909
17157f691545
204b45454561
4f1d22691523
251b21460748
4529087f1b1a
4f484b1f4f35
120c19616145
45484b244f46
221b450e1720
22482d4b0f26
2e2a1d451f24
483045545a2c
1a4545454f46
73224848140e
54454569140e

482e6d4b491a
7f7021310b36
132137197265
11564c13054f
132b2d17117f
5e2e28604967
4e0e79251840
201210171d30
1d1b2e29793a
19161d265479
1f39181d1149
185d5f1b6044
501617211456
2664565b7c69
471c7f1f0e16
7c2a1e6f317a
2b1a432e317a

277f6a296f65
2d4f78483b19
6c2b531a266d
292a5e1c6615
713936786308
6565254d126d
2f26181e3a29
12196e29304f
66641d6a061b
11161b6b4726
72155d3d5536
753622197243
515d54707545
392c09404922
1a0d3a5e7519
2852197f1d19
72461f261d19

1b0a57203c14
3b456e382843
1c0d02421954
1403456b4c1b
502753251821
6a2618585444
53131e201d3b
7b7f3f1e166a
19591238222d
4e4e7c2e4364
15113c172517
145e0a7f402d
3a112c67145b
27227f424c35
224c64480d3d
2a107f2a1518
7f463c0b1518

1646424a4545
6e454b456145
456945104545
69456e544545
45613b454516
45451a453b48
4a457f3b6960
3b1960694545
4545184f4545
453b73454542
45203b457f42
4542691c4545
4b4545454569
696945733b54
23604545450f
3b4511457f0e
69457f367f0e

256d2b206b70
173c2b733d7b
357643145b27
2e65481f5420
2d70235f3319
6d2e2230490a
38341d19305e
2f13543c637f
41201a23344f
7f1111484b69
3c1e5d694f33
352e720f4e2c
7161592f455a
7f106a435844
1423527f6c20
1933153e251e
4d6c6224251e

7f5d723b0d2c
54134563177d
20183f1b4921
167566295e24
0d1b16282935
542739122752
411a2d39174c
132339137f55
332a3f167e5b
62171325487d
1c7f501a1b59
201956162a4e
521e3f6b211f
712b517f6e4e
7f1f6242611d
5b3515305934
394429375934

341a183b6727
43564924162c
1a19151b1d57
194c33120f23
24217d2e1f7c
53163b1e126a
191f7a5b0b6c
1b1c721d1e63
3e5e543d2961
33212218526f
2630560f1a5e
181e6b22113f
382c39461848
704b7c4d6033
3c1a2a544319
621d20346678
60361c456678

0b3545254821
145d50251609
141b644b6d47
1f2d6e7f484e
761a18642020
3e31254b506a
7f19204b1b22
4a30470c792f
081716285703
24564c204476
22150b191831
110f2a47191b
0a213076156c
280e661f3834
1e474317537f
1c302b631f19
753a2b471f19

4d3b29642a20
3c6a6e3d1e68
171846134f48
1b46171f2426
731e6e7f1e2d
5916796f1022
3e294d582252
2818471e6a44
20257a1e624a
741a1a312e27
2b1f5c1d264a
2766211a033b
3f161b71165c
0f3677457d72
491d2a375916
7f11164d542c
6c35784e542c

204f77235220
2a155267183e
13116976145e
180d2c5c4e5e
4a136f610f26
582a1c5c3c7f
3824142b1f19
48226d195341
14411b671873
21796e236227
1b17501e1a31
116f79411b20
2816317f165a
1e2c46472315
0c7441263f4c
281d3c461f16
7f6e6c4a1f16

69734569451b
5a457f48277f
231620144569
1b6948244545
452045612445
451745104548
731a48731245
1a1945177f45
454845545a46
45152d327345
367f41291954
2a455a175a4f
69261f231645
7f454569455a
731e69464813
54311813615a
45456945615a

386c6c6c5c5c
385c5c4e7f4e
5c7f4e4e5c6c
7f6c6c425c7f
386c7f5c5c4e
426c7f5c5c7f
7f384e4e6c4e
7f42427f6c7f
5c6c6c7f7f5c
5c4e385c5c38
5c7f5c6c5c5c
6c7f6c425c4e
6c5c5c5c5c6c
6c7f38426c38
7f6c5c6c5c38
4e4e1b6c4e7f
385c3b3b4e7f

16427f54606e
543b7f3b3b3b
6e54601b6e42
546e7f6e4a4a
3b7f426e6e37
6e6e124a3b54
4a4a1f603b6e
7f18424a7f6e
6e7f1d545442
3b70156e7f4a
6e1d7f7f7f42
6e7f541c6e6e
6e7f3b54604a
7f424a6e5442
12707f6e4a1e
607f0f6e4817
3b424b6e4817

7d075d3e281c
60176c492977
1b1a691d735c
121a251f3a4b
0d1b6446144a
631a4b697f10
181032211464
3c18241a5b77
2b4d37534613
4b271a1c457f
317d1f281763
204c7a1a0727
4e266c542035
0d533a7f7f4c
7f147f5c3314
7524216b772d
736e797f772d

116a1d1e7a58
1f297f7f465f
7b1b580f6c4d
387f341e7a43
7f3b2d1b7d25
347f1f7f703e
232512193f74
18122f341878
3e3e14236d65
2f1e1a6a531d
7f165c4c4e22
72223c116f7f
4f3b135d7b7f
7f544114363f
211f4a7f3113
3f621533181a
276c3c3b181a

2b2e43225b11
3a6367611f1f
200f27475a1f
183d5f3f1c3f
5819483e1b1b
303424252122
471a1e1f224d
7d7b61144e5a
28081b492a0d
5a5c7c3a2817
31133e152e30
26214e7c2d1c
0e28216d1f5f
37126317234b
184d0e3d5e48
2d2075551c15
784e3b101c15

4c2e6a4e5f1f
5d712b232039
121a51176860
11557f183b35
3924682e187c
1b1a3766076d
3f147f351430
191858162642
1c1a383d4f21
7f1516213325
12384a222b32
22586b161015
49304c162316
67141f361c64
53206e774816
71271718317f
6a25475b317f

1b732b2d4a58
387f4b782f72
7f3279167257
2a48221e2615
3f3f185e7d0d
3f65175d097d
1a351771497f
29194d2f5166
4b3f1e437871
251517723817
7e1154454713
7f5e4e19557f
36500f757424
3d1f60501b3e
1414227f5a1b
1b79187f1712
2b6e50171712

16545f212517
2353616c1f1c
221d374d5a0f
1d3a24484121
111c751c331f
3c2114452e2f
48151a2a145e
4f7f10256d0b
39360f7f0e08
4e544820342c
3015741e2135
1d4f47616b23
3b12695c171a
19546e254a28
1a4f13311e34
1e287f362d1a
473b23312d1a

25216c227f70
351834332418
3d7d7f213979
3f5a611d653b
447f35244311
1b4f1d4d597f
274923542e4f
2f1b2f312d7b
7f39323b3a2c
4c2132413024
351a4d793a1c
453563174e66
67737a353d1f
5a65493e5a44
1b2255207c1f
1c3017601818
3d527b341818

2157201a687f
5258613e4731
3b7f6c20273e
3b2f651d3a3c
7f7f661a311a
5049276b393e
2337141f3b63
0c172b441139
7f623342763e
6f1f1c41545d
2b1d477f562d
302b310c2658
477f1f3d3b42
55312434534b
112744795b21
31381446211f
647c250f211f

4572574c7f26
4c515b722172
122148227f4b
185e461a4b5e
3d237f572572
572b465a1346
46157f461c4b
121b48105e72
1c5e67515151
5e2318224845
144848181845
1b4c4c134c51
5a25724c1a04
727245454c51
45225e577f20
4827174b4c72
48735a7f4c72

547f5445697f
69454f731454
191d450f6145
124545245445
4f1745692e45
454f45737f45
691348731369
251b61197345
734569455454
451b694b084f
7f4f73292045
154b45164845
7f69697f1645
4845487f7345
4f1c4573451d
45251b454548
454545464548

122345261d12
334545451941
151144454545
1e454545461a
151845451017
1e1714454b42
452a11681b54
453c1f194541
615e13454545
4545452b2445
1a1211181635
111045453326
450d45450909
3d454519453a
0c4579455445
2a24455c2514
454545132514

637f4646427f
7f4241701558
141c42185846
174241267f46
631241420f41
414648465848
702041631b5b
4c0e7f177f53
5b654648484f
421771194158
7f6363542146
11585316705b
635b4642137f
485841464141
421063534817
41270f704841
704157434841

20485a124516
4b4845690f30
1818544f5461
10247f734845
4515487f1a1a
452424464545
4513171e1e46
736948254845
0f7319734f73
454b4f376169
191245191345
242e5a454b24
1f1e454f1b5a
454669482625
1d4f3432455a
252c45541c13
4550457f1c13

7f5746487f1a
486767570c5e
151a5722674c
0d4c51325457
4b2948510b57
571e51515e5a
7f1051571148
261273144c7f
1f7f485e5751
57152d114657
1f6751321648
184c671d5757
54224c511e51
574648674548
7f1654676920
4b21174f4c5e
7f724c484c5e

484672734857
485e4c454551
725748485148
4848674b4c72
577f72485e4f
485e46514861
5e454f454857
72694b4b5e48
575173574c4c
51197267675e
7f5a4c46464f
7257511b4857
485e4c454b5e
5172674b5172
114f48674c67
485e16517245
725754547245

216e424a7f6e
6e7f607f7f7f
6e5460233b60
7f606e546e60
6e3b3b3b6028
4a6016603b7f
4a3b7f3b7f60
3b1a607f6e7f
6e6e12426e6e
3b3b736e3b42
6e133b7f6042
6042601d7f6e
606e7f7f6e7f
7f6e3b7f3b42
13606e4a6020
3b60144a7f15
424a7f367f15

76457f395717
3c1f4b492332
1b1d721e7f1e
1f27261e2e4f
5e1b141f1953
29185c1b604e
312140551c16
1c1435191353
283c2c436b0e
16212a216e62
287b3e1a3243
25503c106954
4332274e1a6b
5b2236775447
7a196e2d5620
501f186e6b31
170c27646b31

737f4848464c
5e45514c575e
486757614c4c
5e51485a4c4c
675746724869
5e4c4b48484c
4c5148675e45
7f4667674b48
5145677f4848
487257485151
48465e57484b
48454b5e4c48
514c57464867
5e45514b4867
4557484c5e73
5e481845544f
725e4569544f

1745722f5e26
7f51515a2a72
1710195e5a4f
1d725157513f
451d4f481b1b
572a22725772
51261846225e
4b484826674c
1f4f214f5757
4c4c48485e48
4f154f1e1945
69574f48511f
1a2b7345184c
5e4551516957
1f4867516751
2f1748461c18
484c69461c18

403c235e4020
5e45151c154d
1c0c3a13344f
1b277f187521
75212e462245
45163846263a
411245241311
2f19431d5b5a
1e203c5a6531
451128275b4f
1d444b371938
1a2e78165044
511732452d49
631541424e45
501f477f1523
5e291e763645
7c5b40713645

1764501f4d3f
0a396e40347a
743316241054
242378153d0e
34454a6f741a
256d2144151f
243b1a2a4d7d
1e156830375b
253d15625b62
2a1f247f3d1c
751c292f5834
79207c187f7f
2c394f46797e
757d194c103e
1f23582f5d12
1e5d122b1417
6b2546131417

1e46732c541b
57487f7f2422
17141e73367f
1946734f5448
732345610e1c
41161a696145
45180b332454
7345451f4f4b
7f2913616969
12734f0e5446
1015451d211d
0e37455a451e
451f457f131b
1c4b455a5045
127f18614b45
2d2073481d15
464645331d15

16664f2d4d7d
3f7e0d502677
427f5c182b59
373379271155
5f7f7f4d3b0e
3148282c5721
0d45242d3428
37165e427268
7a281f627f7f
47282a3d5211
2b217f7a4842
451130212353
77647f522077
4d4c31232c22
19263f272a19
2742102d1a1d
2a597f271a1d

241d5034597f
44395c66362e
3b7b301c2b46
296b6816471d
387f4b112a17
712a1d756118
45361e663723
3616323b507f
7f71261b6d48
7716162e3479
3119687f3d38
3d344011265b
3b7f5d743d60
5d4d24165c4c
161e385c5c17
314811522324
583f2b522324

752126461f19
75212b64202d
20172a1b1637
0e64121b5145
0c2454172d44
662644143921
3c2136391a46
14202c195221
3e1f306a4b5c
381e1e2d2423
1f7c1823195b
15403b180d21
3c235365133a
1a0a4a6c7e4a
7f2850453e1a
742c18305b34
1f3840535b34

69464846692a
694527451e4f
142645196945
1c7f73237f61
451b45451b69
451e45454545
4517697f1a54
261973164545
2f4545734545
691a33134845
237f451e3145
134545124545
451e54151a45
697f4569457f
691745455a1f
7f241446455a
5a694546455a

133c63373624
1f4e0a211b24
1f120d3c4c49
18416e541e13
4e172e38221a
62182c511c32
7f1e1360193d
1f3d772c0d0b
14341d0a4621
2e473b38063e
1c104d1c2f2a
104478695c3f
5c137f121c42
6a2f2c480f2f
1d3d3407167f
3b2a2b242219
487f224b2219

4b4f3f51632a
5f0b15681e35
261e2517387f
14642121103b
771f5574263c
56207e115017
39173c291634
2a1677176135
322f7f56460b
201428212b24
28282824166f
307f4b1c512d
242d3c58103c
120f6f72736c
4c194a1f2f1d
7e20121f4a28
441a30664a28

1b437f155f15
2f2c4a3e2256
2310357f2529
104a62554338
520c3e202a1c
182e231c5b7f
391f224b1f4d
481f68176813
0c641419373e
1e7f64211227
251c671e372d
2d757b392a53
5b1d727f1c2e
4261622e1f50
197f48385049
2f1e2d1c1d0a
34541f0c1d0a

637f4646427f
7f4241701a58
132942145846
184241257f46
632b41421c41
414648465848
702141631a5b
4c147f167f53
5b654648484f
4212710e4158
7f6363540f46
1a58530e705b
635b4642217f
485841464141
42216353481c
411913704841
704157434841

111b47263b48
444230216f27
2b4465247b27
7d4f48143d5f
5f336a5b470e
4c42225b2c7f
3973193c7e47
2c18737f3470
477f17547a3f
66221e23041f
20207f377622
384c7f205d3f
7c3673112d4d
7f6a75383e5d
15176f287f2d
1f2e19541322
240e78261322

1646491a4545
31454b456145
4569451a4545
694519254545
45614e454518
454514451b48
25451c1d692a
26194e694545
4545194f4545
450e23454526
451923457f2e
452169184545
4b4545454569
696945734e54
170e45454528
394514452a21
694514462a21

784656351617
60196d462d57
191a64182922
22125a162468
331e493f1a51
320c49725d2b
2a1645511a41
13134c2a1e4b
2e372a7c7f37
5c17261d5646
1a76492a1d73
1e4e7f0c5921
3c1a7943220b
635f1a53525c
7e147d483a15
470a166a7337
4477366e7337

0a427f54606e
543b7f3b3b3b
6e54601a6e42
546e7f6e4a4a
3b7f426e6e18
6e6e0b4a3b54
4a4a19603b6e
7f16424a7f6e
6e7f12545442
3b70176e7f4a
6e177f7f7f42
6e7f54136e6e
6e7f3b54604a
7f424a6e5442
18707f6e4a10
607f156e4814
3b424b6e4814

1c4572275e18
7f51515a1872
1d1e445e5a4f
187254575118
45244f48211b
571d17725772
51191846255e
5a694822454c
284f214f5757
4c4c69484548
4f174f1e2b45
69574f485113
1c2d7345134c
5e4551516957
114867516751
253273461a17
484c69461a17

343365552c22
4a1546291053
1d183e193b30
185b41133915
76227f3d2279
5f3334483058
331a7a5a1a38
281814146d57
0f1640276470
4f1b1f272865
1b452e161648
156e2d233936
3e243a7a1d1f
5b32482f6e3a
55187e711517
73251666377f
323d5773377f

737f4848464c
5e45514c575e
486757614c4c
5e51485a4c4c
675746724869
5e4c4b48484c
4c5148675e45
7f4667674b48
5145677f4848
487257485151
48465e57484b
48454b5e4c48
514c57464867
5e45514b4867
4557484c5e73
5e482345544f
725e4569544f

1a3964254f21
1b2b131c296d
1a104f423e76
1c511c6b586c
44212a7f1214
5822195e4b26
4e1414371e68
717478112c21
2f4c131d4470
3d417d29614c
2a21481b2d2a
24687f7f1222
202f4c1e1932
5013720e3f39
1e4f3b1a4436
241f7e1d201f
3d382720201f

737f4848464c
5e45514c575e
486757614c4c
5e51485a4c4c
675746724869
5e4c4b48484c
4c5148675e45
7f4667674b48
5145677f4848
487257485151
48465e57484b
48454b5e4c48
514c57464867
5e45514b4867
4557484c5e73
5e481045544f
725e4569544f

384e38425c5c
427f7f6c6c7f
424e7f5a5c6c
6c386c6f6c6c
384e4238427f
7f42426c7f38
7f5c427f6c5c
3819385c5c5c
5c5c424e6c5c
5c426c4e7f4e
5c555c4e6c38
38385c127f7f
5c5c6c6c425c
5c42384e5c6c
21387f4e5c38
384e144e5c5c
426c4e4e5c5c

7f543255161f
4b7162251c21
161c6326574d
174471292628
2b1a25462145
7d2b4d203e47
171e2f2e1d68
1a1a1b0f2819
1f1f4227663d
751e2b174129
187a1321155c
182e240e6a21
321a34051946
3020497a2564
7f2c481e3c21
65380b554930
291123484930

3267393c1b27
713d49271877
1b18401d0b43
1e44671f193e
231f6d532975
6f20324e6f70
35207c391c23
211230202c65
432649344f43
191a3f207522
2135211f1751
24692220511a
4a2d7748231b
1740234d4572
3514646c3519
7b19186c4d7c
40656d464d7c

10285c1b2021
1a50522e0935
2b12653a4c67
1e15557f221a
7f1f21632d1d
2d1c1a354a6e
7f1a257c1033
3e3b411f7b15
162618275213
53504a305042
2d1640190e23
1a4a7a3f4f3e
34186f1f1911
37706a0e4d13
0e483313287f
241f315f301b
76517542301b

483f235d381c
660a1f112a75
1b0d5f183036
2472121b6020
191742571b31
101f7e21293b
2d23316d1f4e
1a25451b5237
2e337f235830
35181d232e1f
0d2e121b2c64
2732071a1a43
272370281a42
3a3c19277f5f
42161e5a3a1d
7f2c1e635427
6364184b5427

244545172e0e
344b1a451b06
1b1e4545445a
095945454545
451b484b181b
442a21184a15
451e147f130e
3526421e7f39
243f18454545
0545451e451e
25201c2e171f
1d451c4f3426
092345381b21
1d450c5a192e
1845455a4545
7f203661240d
45455a2a240d

42464b7d131d
75620558161e
1122601b777f
241a462d3853
6320625e1933
672644616846
341b437f1929
231417127f07
16163b7f7f09
461a1d264d6a
25282d2b197f
186272195d54
521f21061233
4e0b17227f7e
37126c273425
541d12297f30
720821637f30

1e4548234545
614545454545
454545234545
4545451c5469
454545454513
124522454545
45457f7f4545
261945454545
456916454545
451c5a454573
451f45454554
454514544545
454545454b21
454545134545
15464f694522
1445147f191c
5a464521191c

0d4620274545
1f454b456145
4569451b4545
69450c1a4545
45610f45451c
45451a453048
274524596932
172813694545
45451f4f4545
451b1545454e
451a5d457f3b
4527691b4545
4b4545454569
696945730d54
1f1245454512
26451c45140f
69453026140f

544545454824
7f4b45611f61
20224f194545
20457f244545
542346451873
4528454f7373
461545541245
2e2669185473
484f544f695a
45212d314845
2354241d2c61
1d5a61184545
4b1e10451e7f
5454734b4545
4b1a5a7f451f
542927457f7f
454f45737f7f

164e77246158
192630513a5c
7519671d531b
346f2f136f64
732d5744791d
2c7518183120
2d3a16123f49
20175c2e1979
313e12135648
45271c5a204b
6f1e4d335e24
774d32182972
6a5b530c7f7f
39645a351d41
1f1a29763910
1d5e1a3b2b14
201e231d2b14

16310f284215
501b44353262
191b34455c37
113d192f7844
351832241c20
0b3015267053
4b262351224e
5a797c1f6528
201e234a411d
454f71346934
19120f1a1a26
3350267c3a39
492b7427175a
532b25181b25
164f2b411555
301e71272118
512f23382118

637f4646427f
7f4241701558
171942295846
124241247f46
631a41421441
414648465848
70124163175b
4c157f247f53
5b654648484f
422171144158
7f6363541c46
1f58531a705b
635b4642247f
485841464141
422063534819
41101e704841
704157434841

1862761c6049
4475512e3b34
6b2f4a1a4460
373d44167f26
5a3e4d476a14
4f7f175e0a4d
182f17333d73
131d08304248
40411d271a38
1e1e20763366
67204a4b590d
79416b177a52
744b5713767c
3f7f68413c22
1616645b6613
2c6b1a2d1d11
2154223f1d11

17467328541d
20487f7f1e1e
1c173173017f
1f46734f5448
731d45612526
331622696145
45231a01130a
7345450d4f4b
7f1e11616969
0e734f2e5446
151a4512151b
1c47455a451c
452f457f0f16
304b455a2045
167f4e614b45
2e167348251c
4646452d251c

386c6c6c5c5c
385c5c4e7f4e
5c7f4e4e5c6c
7f6c6c425c7f
386c7f5c5c4e
426c7f5c5c7f
7f384e4e6c4e
7f42427f6c7f
5c6c6c7f7f5c
5c4e385c5c38
5c7f5c6c5c5c
6c7f6c425c4e
6c5c5c5c5c6c
6c7f38426c38
7f6c5c6c5c38
4e4e0f6c4e7f
385c3b3b4e7f

28454f25734f
69734f694569
455a5a1f6954
45545a1a5a54
5a4f12544518
45452348457f
69452945487f
450e61454f45
4f4f1f454545
4f6124456145
451f4f4f5427
457f480a7345
735a48094569
54454b454f48
1269454f451c
2b7316451622
185445451622

7a304d4a2d2a
6d302f34225c
250d0f187d29
164341254216
1d234c372846
081f41410d49
1d31361d1f43
1c16761b645f
353c3f542b0a
48141d162764
227f4b162f58
191b35154946
1211640a171e
6d75587f3243
7d1b3a4d421a
7d15105e5e42
0a100b445e42

40635a436821
6d6e7c6f2111
171b5f1d764d
10551e1f5457
2c19354c1d7d
5126367b7a0c
2a257b41165f
2321192b5d0b
192a56507652
161e2a2f454b
1a311a2c395b
1f2c131f4d19
112834751e38
527e153d4e7d
3b1e7e4c3223
5c341a444a7f
0b57485c4a7f

1345451c061b
364b34452b04
1f1a45451e5a
1b1845454545
451c484b1510
14211a564e2c
4508117f1c70
3936251a7f48
153b10454545
364545194553
231b4c111c35
0d45624f2e1e
2722453c1776
3845225a3a2c
1945455a4545
7f1e2b611814
45451d201814

4658685e4e0f
5c75677a1779
212574176c5c
1527351d063a
3c0e2d571630
452a7f26194a
321249611232
161510171e52
24637f71364a
3d17201a2734
14285b131d65
1834721a6f4e
342c7230193e
6a07484e7e4f
4b181c132a1c
79161477602d
183e6b61602d

20485a19450f
4b4845691533
161e544f5461
0c447f734845
451b487f161a
452e16464545
451f15551a46
736948264845
297316734f73
454b4f2a1269
1b0f45211945
261a5a454b26
141b454f175a
45466948411a
1b4f2960455a
122c4554230c
4529457f230c

472d197f6123
7f2a62170f6e
1e1a51205838
142332366156
551c46362331
2d4137245920
271e4a7f1816
0f192b1c256f
342c337f312f
2f1623343a34
213d2724296c
2451501a633c
4f0a6e4b2131
4d2b414b6179
302a5f613024
453c0e177f33
0f7f697f7f33

41467f3d7f46
634846424241
484248417041
4242584c4648
41484846465b
70425b704146
70427f464246
4c4c63427041
464641485b46
4c5b7f464148
484142427f63
4241487f4648
414870464248
41427f465870
177046464146
584222463d69
42424c413d69

19454f2a734f
69734f694569
455a5a126954
45545a125a54
5a4f36544528
45451c48457f
69451d45487f
451761454f45
4f4f18454545
4f6117456145
45174f4f5432
457f481c7345
735a481c4569
54454b454f48
0b69454f451e
137311451e15
4a5445451e15

