7e432c300e20
3f182c73242e
1125431b3577
1d217a233452
0e1c3c6b1659
7b1945394062
20113547245f
261a0c15603a
32422b675634
771d2a103140
227c2113176e
1c747111462f
38247d1e1c29
35446a5a5656
79186f083514
550f1a5b7431
1e637b5c7431

135438185b57
3d567f554a30
731b40141830
363e3023784e
7f374b1f7311
1c7f132a7f2b
36351d263d63
200c522c7f17
46670e52447f
7f1f117f7034
7f102c3d4f1f
7f1e7d0e7f7f
344e1c327f64
6e193a1b1e44
1d2426565810
177f13642218
2f2b43342218

271253291b1b
207c6a2e285f
18206d3b5664
15692c345351
1f1a7836171f
35221d2c4a13
5f291d5a1c1d
6f723c196d3a
1c212214381f
44477f344b2b
14152f161e1d
23422c79374b
522322601b69
134946154f49
27603666363e
19147c61181a
33562731181a

3b4e6b4a5e30
727547651842
1d1a641c7b7f
1b73600f0a2f
46225f15147c
6421313f2d25
2119735d1871
1c1420265d0c
195d385f1646
361a18392360
293e242a2d46
1f605e19433c
1728647f1d07
4e1c7f585e47
4f1b263b231a
5e2917502e78
3b4e67312e78

1f6a21197358
3c526c342479
732b411b3f10
2c257c1e7c41
77463c797319
24791d165d15
282a1e15417f
331c5e307475
377e153a3c7f
171c26792912
7f0c203a4f25
7f426e184d79
1953557f7f18
7f19721a191e
211514552715
20791844291a
2d3b3a3f291a

1a566b10632a
55416c212e4d
1e192d3f5941
1b5c3a5b4014
471b34572519
0f3118596d31
481316142211
5d7d6a242e29
0d0d0e1e3620
784477312412
2117442d1c31
1c530a75681a
3b2e26051344
2e184d191749
173937474939
28247f691519
6f4879411519

182d6d241e70
3e5b090d2716
3d754c1c485c
38195324612a
6d7b3676431a
534d247b716b
2f492579324d
101e3d413776
641b1b1f7c61
53201b4d3654
312448723526
3f152e1f583e
4971526b544c
584d4b36231b
1e1a392c351c
1d5b127f271b
705e373f271b

20163028776e
374e4c312f08
44742f0d5312
3a7f0c272217
407c5b483713
70482a27264f
273026383139
200f53334d3a
7f711f3a4435
47151a266124
26135f7f3a12
3a2b49142738
577b140c3923
6b251f151518
122521622b19
263c1530191a
66523e09191a

7d4b7c4f5719
6a5f2e31140d
241c5a266631
0f5f3d13603b
291e32681d33
3f1741091c6c
361a41791a5f
0b197f124a72
2d552e664d5e
171f21241074
297f53161047
1f586f147027
0c17417c1222
72777b574659
7e247a213d21
5215167c4c3d
6974552d4c3d

44302b320b20
4b1757501326
26191e144d52
124b7224264d
082077361974
3a1744414b27
48187716136b
361d481c6854
2938552f3054
331b2028192a
2538330e074f
20614a1a4b37
090f4f312229
420e70326c39
360e794a6817
7c331f22517e
4677465e517e

116446252920
137f53601139
130b62355145
1a5c7f6e545c
681e5f7f1216
3e0b196d5c0d
6b1819781a26
28433d1a5d6e
16501b5d6640
3d4d3d143a59
1a1a661e1638
0e302b4c1b14
502a7b13145c
56525b455b19
1f5065413a7a
2b1e35172f15
376d18212f15

4a533f68711f
7f7233391669
291a461b5b7f
1364111e4f5e
0d1a7f1f2b35
583b7f3e0d66
332731231655
14164417242d
43097c7b4e57
4c1b232a4521
2823121e2658
300f42164040
0a2a14692418
565062543d5c
3c107738181e
7d41170a4e28
1c697c564e28

1f146f215425
297a3d6b1770
0b15567f5137
0a1b7f656e26
26127f721915
73221f176f4e
45241d1d2354
4d2233236570
283f12386833
107f66247f34
1f141b272928
1b76394e690f
5a31434f1445
4f0f741e3424
127b14061739
16313053190c
31633e27190c

4022107d4d16
55255b1c1f07
201d531c4435
161e5526347f
16233078153e
542f38155c46
3a1d3f67184c
1e2157207863
2a203d747758
1b1825237d6b
23370e212e72
242a7b19704c
4c1a66211d17
3d0c722b7f73
361569313018
50341e237939
2b162a797939

12390d157f44
1f296a3c7f4c
454871196b68
7c6c4b121a23
7f30296d5a0c
24441d527468
0d7f19287f51
22175a7f414a
463617517f6f
240c1e421f22
35161f427f26
4b284d177867
613c4912342e
4a6e36053214
1122370b6928
144a19272113
1d216e452113

210f55207b51
4827447b696a
544675127f6e
7e1f34261425
5f4753065618
135d175a250f
28761e5b726c
22175f7c5870
5b5223262a7e
631725545f1e
501a30447d2c
4e493e143741
7f415a764870
355536171c3b
1013211f272e
1c41137f260d
69164335260d

7f1d7f34472a
65077255216c
1b202d20764c
1b166a263e57
0f245a34184d
602340454a1d
251136311c4a
1b0f6919552e
2e572d312507
0824302a5250
227764263057
14212e154049
411c5a061e06
1f101a77684d
7b181e613013
682a1b2f6137
486529696137

0b7f6e104d54
13425b5b451e
721648116e12
367f40185d55
7a3c48557119
6a7f0d517758
1e2a1b433056
1b17692f1135
4d2e1157077a
441f1b7f7f2e
7f1a753d5442
7f515c1c557f
3c413e477f7f
497f4a442d1f
1e2d41523518
227f1a5c1f17
130d2f101f17

18444b274419
356e620b2517
1a201a384529
15214b35562a
1d163c7f1426
73221b244951
572e126f2d5c
7f7a191d3c06
1a311b283c46
57507f232b33
16211d0f2724
23343d7e7254
36121e2d1e30
395b12246e32
1e4f3c5a3d4a
27227428170f
2c377b1e170f

4560334d212c
7f5822171369
1f230f113950
0e0947122052
73300f500e7f
7f1d3d1c3f0e
321c7f701749
14145f1d3843
285c30614861
490b1b30164b
1e3e122c3148
137f1d1a1730
1a386c2d2461
4d3e27304d52
470d7f301516
762712543879
1a65663e3879

167f35215a54
0c13506b3044
7f307f212d3c
2569491f5419
452e5c137f0f
227f2e192f7f
1e281d775051
1819443b1559
4b7f255f5059
3119297f6a63
7f1820385b2b
7f35750c5c7f
4c530f7d7f76
7424304c3e3d
1d1646403913
287f1148210e
3f515c24210e

2830161a2319
32683d6b1b60
231908415550
1557385c7642
510d77561e21
3d1a1e27690b
2a151a161e3c
757f3d0f6726
174116052d1a
7b4a7f1f0b25
271b30152912
1513687f0814
2726161e1120
0d0566192c28
145230204d31
093579672513
69713e3d2513

0c20691c5e77
5b3f6678362f
3f733f207616
302a421b7f22
7c7d5c59360a
353825400e0f
233f2948277b
3b1b46331044
5b46224b0c19
771f1c464f51
371d7f79312f
52264f19296d
7a6f7235381d
5d094b122133
101e2c794013
20470f5d0c18
482541390c18

2a465525677c
1e36287f3a05
377f1e174f1a
2f6b2a195d17
327a4d14260b
073d201b4d4f
2c320f093348
211469360f47
67661a1f332e
27192a30311e
33154d7c402b
332d6d1a7e47
4b7f713f2f35
68253b45382f
1732236b4a20
1e371149201e
1c465224201e

77196d513a1c
67482b261119
232b441e2932
121a111e0324
15151b641f2f
59264927176a
3225251f2266
08235d114217
3866475b5e62
601d2f307873
197f221f0e62
11683e1c3134
25290f2b1161
424f0e574557
74183a662112
70191a275e31
5b485f455e31

481736493524
5e73454e2c26
20181b173577
181e6b25451b
3f1553171d7f
391c315b6e1b
3a3a7d731764
1f177c1e6b59
3958563f216a
7722251c404a
0b3d181f2367
14403e12400a
23216c5c1d66
5d7469436e44
441d3534481e
7c300f63597f
0e6e7a43597f

1c1a31221628
193534731b2a
1a106c41271f
24335e7f1b2b
3f1b1d6a2124
6219275d1842
7f121378226c
2d461e153f05
31521048273c
7f4b41317b62
251b11171438
1c5425407343
572d65791a47
49692046552f
113a3d32497a
141d37213118
194438333118

383f266c4924
5a2b153b0d4f
111468174c45
116851191d5a
30174b561c30
491271224c57
1122433a1716
231d1b153946
2a1b7b5c2819
5d0e181e5d18
141d141d1b7c
2258521b693e
4c19725c1d4d
2b2a7c57777f
450e25302b13
7f1a1e3b521f
11577f7f521f

25427f1d4f10
240d196d0d30
1c17477f765b
0d6e6d562a62
1e0f566b1720
311e274e3c46
4c1e0c15200a
51200f1b2806
26241e513465
1f7f64322440
24136215252d
2a2d354f304b
4b1d625a1860
0a5820461c52
207f095d3941
2a2e38251a11
604874201a11

4057297f5b10
6f352c1b0e58
21190a0f2861
190f7c1e2e7f
441b3d501f30
3f40380d7523
1e1c45400e10
2211701c1e22
2c513b5e2a7b
4c1b29264313
283935252a7f
2058681a1659
461316381c4c
175766255473
302232380717
3330165a7f2f
596624627f2f

13493b1d5b57
402b7b706c1f
3a472d1f1d37
7f7f45163343
3e392175510d
3c3a13327a12
377c1d517f38
1b1e177c6164
5d431c234639
280d1e2a150d
361a7e307a33
3f3739235c31
643d72392130
707a4f362543
21227d5a4924
2d471c7c2016
3b7110292016

196c211e7f50
297f657f772b
434a7f1c6812
75515a2a3b45
794640223d29
3643107f7b7a
2c792645742d
21176277372e
3752144f7021
481b2a343f33
34166a58772c
3561421f7148
7f403337324b
754659291a3d
16137959511f
1b49106b2119
6d6f602c2119

7d1b7f2f5d21
2d4e634c0c4d
211b1b176f52
1b3418185672
6a1e79181753
40234d5f6e3e
381d3c31225a
291967167f74
38582e627f57
161c15313370
2a771b1b105d
2a4753183f2d
2d1d680e1e61
387f195f3b45
76182d4f0919
6630155a6045
55397f586045

144729127f51
5a36285e471e
7f1d5d173d4c
25656f1d7348
343c64507f14
507f1933476d
2c2a125e3e2b
35193b31572e
452718265638
4124107f7f33
7f225d3e5832
7f4963155f7f
46492e187f7f
6e323c0d2d1d
1b292d7f390c
2e7f13722011
6e3d4a562011

192c60212d1b
2368525e2254
182561405018
18213a402514
31256f36211a
4719215e1f4a
6a271a27192f
69762012774b
1c2922170f19
4a4975183311
370c29221e2a
304d49775c2d
2d1650311c56
2a2f27165a39
1f4e435d2346
221375640f19
507d53150f19

3d50774d3026
766b693d2217
161a0a207f50
173b5013124f
262e6f4e167f
3b08484c2014
211a77211920
211b561e2306
2e473c213a0e
57162d16352c
0d414a233432
1f52371c6240
151e7f70192d
26407e5f3959
4c203c63561b
740e12552f79
35645b5f2f79

1063572f6569
337f7c2f3561
7f3149211440
287b4f1d4d30
6a45414c7f16
0f7f233d3a23
2b2f1f4f4054
2616303c1337
4064245b231e
6e15217f5a19
7d1555385c31
7d3c7f16497f
14422e327f33
705912435e32
1413286a3d12
2a7e1c732a11
514f282d2a11

25575225110f
206b11441d23
190f5e436368
156b585e1a37
361e5e372413
681d271f601e
36101a431b3c
767c751f114c
163f183b3745
2d3f771d2962
111b30103428
163a657f1455
100e153e130f
670658361e1d
2b3c383f1a3c
2c2d79182818
122d29432818

1a7f0c312b71
401b1b543136
42792d1b1b5d
3b281818425f
3c7f145a460f
4450260f303b
245914242a4c
261e39300e12
7f6b25274565
1c1c2e525047
3b1b326e2e49
501910245632
7d7e5a1a4a18
1d377c414a1d
1028563b6417
263b156d2711
556b2c1e2711

223b511f2d7a
3b43217a432f
337c4c197f2d
38396f15464b
507115552c0d
4c1f2a576732
3e3e1a5d3b7b
3d137b3b4149
7b6a19296829
701a23276b55
26197c7f272f
24477c155f3c
547a1f3a4658
7d1d3a2f0d19
1129722d3a25
30200d5e1c22
41042e4e1c22

783c7947691a
374e286c2a49
2912791a1d62
111f59171d2a
2b1b7a22233e
5a274c5f790c
2e223d70197f
0a1a1d102644
211f37302423
5d1d241e1867
1b7f4f283562
291671146439
591f2e391a7f
56445a5c5165
732a45434e17
6a2f13294c31
2a3941354c31

376a752d531c
472e1948175c
1e1e5e10463f
1a743224016b
711e43751a7f
5727380d4b6c
281d7f0a2261
281573224f47
385845616226
150f1f3b7e2d
223352143a4c
2e632b147125
2527757f1c0b
407337201325
30157e263719
5f1d132a467b
0a084d53467b

134126242518
3157380e1a21
0f1c4d421172
1a17217f1461
20215b7c0f26
411316502468
742620231246
3c35431e250b
230c16197d17
7155511d1e79
192312191e2f
0b740d4c6222
282d7f17153c
57782a0f344b
16542624317f
1d1e2d0d2815
7f60633d2815

4c4b6c6f4215
713d3f75214c
2a1934135124
194e2d184461
1a10373b262c
1e2b7f497c06
211e491d2049
2b1c47164f33
0e4a7f787a32
3d0c1c3e6855
33281c191d6c
22370018113d
3c2c2d301c15
1b5b5659687e
4d095f3d221a
7f3519235b2e
567633725b2e

36265e1c421b
321f301d1a36
25113e7f4d11
1467236d3023
721d557f191d
49212c3b6e52
27241714193d
4e327b1b4a6a
0b3f1a425608
6e7f5c222b3b
2817732b1e30
1a48354c6a17
2a23437c161f
561d1b38171e
1c7f17764d3f
2c163933150e
71604d27150e

3d29507f282f
543c24791d6a
23161d1c6023
17114e2b464d
511c321f2b39
7436387c3b52
1323457f1755
2017021a4232
362c3b755d52
121b3222266f
4338401f2279
274f14142147
702552692c38
3e1d7e587c7f
3b1e647c0918
67330f0e7f31
404c2c7c7f31

1e6c4a2a4c4e
35337f147f7f
47410e25651a
7a584e121636
7b2a19756208
3c492b6f7f47
2870216b745a
160b41794f16
38771f35562c
451810327011
452067447c23
457258152a58
764c5576433b
7f2226494b22
24283c72742c
2152177f152d
175d4e3b152d

195c491b2a47
16725c7f7d54
3c427e171e49
7d2275247646
7e412a4f4919
23470d7f6557
2b782a5f7f78
2b195a7f7f0f
445619181c41
231915474a5a
3c165e337730
43741b1b3d64
72383b7c3812
535f4d3b2e3f
0b180f30441d
1f3a15401b1d
4a707b241b1d

6f4267303d21
3f271b4d143c
102502184173
184c551a442b
731915651161
4619580c522e
1812355d1330
19177f156b06
153b2465746b
281d222d7f27
217f13092774
28620b14672b
4b144b2a2124
506b207f7f75
732356231d24
562c184b6d3a
0a17607b6d3a

176d171d7f51
2b287e75447e
7f207f137c6a
397f6317511f
292e67337f0f
287f15592c37
1f231d193c66
18101234403a
3d5e0e487874
7f1c1e7f4f46
7f1272445e19
7f303c10537f
6a3b7f417f52
415359155233
19256f527f16
2e7f151a2211
5f4479402211

14141f283029
412929132333
241b63390639
174241387417
0e2372371b28
40331f1d7f69
6a26170b1a4e
7f7f291f3e26
1b3f1f4c3414
644e7c1c6f5a
3a1a4d1c2812
2a3e12714f14
30161a432032
542770103729
0f5947731539
2c197f1d1214
333020201214

36382a3f392c
3e4c4d4b162e
181a571e7371
1f110e1e414a
2c1e161c147d
42292a066e4c
3210783d1551
22102b1b1017
462e427a6b0f
2c20141c413f
21425c272549
176e2d175316
321a42101f18
2a677a5c3b49
372224172a1f
6726122e3674
5b334d503674

177f0a276361
2c43397f2b3f
7f277f150f5d
3679511f503c
233569467f16
307f21103f42
38302a12417f
30136f2f6354
477f115b267f
1e15267f6c72
7f1d25416520
7f162d173b7f
2a4b273a7f3e
0c7261365635
1c0c38145a22
157f163f1a12
614d34481a12

1e2e221b6c23
2c30796c201e
2c11364d6e2c
1e3f51740c27
3824637f3217
4b4214255b6b
57101368162f
7f751d18707c
1d560f162862
6f557f480f51
301c2517271f
375a3e742936
51391f0f263d
6b7156454453
1e59376d5a2b
30477a211618
426b224c1618

125b5b236e72
574d6f76194f
39756a127e11
3272231c7f5d
157f1c48370f
374220647269
2d4c22692b4f
1f1c3f3a7c59
7e37162c497a
45141f301310
29167f6f3425
2d4d371b5245
2765793e3a4f
2171652e661f
1915454a1b1b
1947143f2a17
43273b4a2a17

226422256e5f
3d2348263b7f
35787b114a54
2c7f0e171b15
23763e45330c
5b3f1a5d2d3a
3145135a385e
30181b3d7b13
7568272a5e25
78172b2c406a
2f1c34743225
331a4a147f3f
6f5d0c19377f
227f31482c53
0d194050341e
362214282621
576516122621

77347f504e23
3c5408292562
211a30162258
103f2a1e2b56
1d1d67381732
42314a121a0b
342b27191310
181547143367
354030302e40
0f21142a7071
257e1718255b
1d687016433a
501925621d19
3133507f7e51
7f26613a3325
7d1510185a3d
672d7f5f5a3d

39675c3a6125
7a2f59292b4a
131e2014177b
1b596c204f3b
5f164016167f
4219315e2463
27387f24174f
242546315331
1d4153543b6a
792034141b19
1339370e455b
1a2a23175623
21187a3b291d
625c37391d3e
2f1717363e16
69151d434c76
323d762c4c76

13621c1b1b30
276e601d1f7f
1a1d744c5d69
1b447a7a3e24
382577591624
71281e437733
7b2815141021
2538311f3f57
342b152d226c
245b4f265328
181e241f1f24
1b2b43477025
253431201d59
0d555f0d2d2e
194d1f245d7b
2d302e24261a
254e5425261a

416725521d1a
67126427187f
15193d247673
1e5860154a32
54237f48182b
4f207b51551c
260b3d7d1522
2c1b15153b3e
3d1579783161
39201c1c7d31
332c6d281b71
2822761b4623
51261a1e1921
6c634e507f77
3f1826741f13
7f1d162a4e31
337f787c4e31

3051570f251d
11695d631520
1514127b2a4a
0f597c512239
2817566f1415
47142058192b
221d1b251e35
3d233c1a7128
1d0e22404732
547964372044
101b43182e19
2f1c3f422926
4e2230522119
4a4a7a265d17
1a751f18083c
2a273d191e12
515f6e261e12

410b4b664125
7127031b116e
262425117764
184d0d2a4a6b
53136a32283c
4028265c7f1a
1b2143241253
231b54236844
1a583c7f1753
691f2f2d735e
2d3425242068
287677190749
651648651f30
26394f294a59
411b7f7a2316
3b4019437739
4656257e7739

161146142f54
3473760f7f66
46350f195c12
7f7777175336
6c4b52255b11
235c207c7e4b
2b74155e7251
25170c783248
4269175e6838
2016164a341c
361716346838
49143e1c5744
7f3e6677281b
755b444a1e1c
10213a12721e
1d471a1b161f
21076114161f

1b39261e584f
5b76615f7d67
383c381b326e
7f2d18264e62
59367f2d4620
713124312379
3e7e2b35742d
2a1710711e69
472f26237050
25161e51183c
3a1424527c25
2e6c641b604a
7337227f407f
67653f346e3c
1515293c7f19
2f2d16572e19
7f2a6c212e19

7f4861352b2e
471d21242813
1b1c4b1b5027
1b17782a6e30
72263d6d1c58
4b194c306557
2613327f1f44
281a6f18797d
18322c597f69
7728212d2a4e
2077301c2863
2a1d5a18224a
3b343f05186f
5f425a5c7f40
7f146950411c
6b1124177237
1b417f607237

0f4c57237f67
3225763b3557
7a101b151a1f
37222a1c7f26
1a326b3a781c
1b7a18551939
1a281b5d3f7f
15126b2c1c28
327f1214622a
192a157a5976
771b65354e1f
77220c167f7e
59560b0c7730
672d4e2d5a43
153326357f0f
1b7a114b1a17
57434f421a17

274320252616
272f286a2513
111b1944661f
19687b356457
3d2d64612321
5f1e1528083a
4b180c431d53
70781a17766e
164317261c5c
0f48661d4b6a
1b1e40262f20
156d4178164e
1a1c776e145b
2b4623372a26
155c564d4d3e
19247c0c2314
784f5b2f2314

437b3859491b
516607742419
220f5c233348
1d2b661b141d
00190c3d2079
7121340e114f
34156f621531
26127f1a7f49
1d68383c786e
7b1b211f4369
283c0a123468
2b6a45193d24
161e205e1b6c
2e0f544f6374
4d1f0d102717
5c2c170c296f
54072164296f

1178422d7e41
497a3b57317f
7f327e1d397b
292c52166f2e
453d37687f12
3d7f1d4f2875
3a1c14133f75
1b15562e306a
522b1c1d212d
4d1e2c7f486a
7f1b4c3d421a
7f3a700e457f
2c48657f7f72
201932212f56
1616201b7b15
2f7f171a160f
564c523a160f

174744163d0e
4628426a3322
190e0f3a3e0f
1b23334e6f44
401b3f601714
501317414133
390f0f1d0f66
7e7f451a554e
2c51151d6a5b
704c7e220e16
15212d21272f
1730247f314d
3b1215431413
497c43311f4e
1b320f0f6236
1b157f55120d
5d29734e120d

174f47274173
1c7a7f712f01
327d0f23595c
413b321e5b4b
047b77622c11
2f202756407e
494b290a303b
28114032293e
7f62253c1070
581f28405321
2c217d7e2f38
3d215a204f32
277c79123044
4f0a653e423f
1d2a44395c1e
2d2e0c591b16
7f7b561f1b16

223d1e2f5262
41535434401c
447614164160
263f6f1a6f43
3b730c483c16
462f155d6844
27421051357f
1d1b2b43187f
776618263e4c
7320234c1559
4c154c6a4424
3b32671d7174
436d353e4878
7c2f3b366034
1a237e637e1f
303f164e1e1c
406959251e1c

781e6661691c
683e745b1e08
172263216c39
0c21511d7033
7e1c15181835
173b3b704f61
461c2564125c
15107613367f
3f5f3d323446
34181d310b2b
2d7b531c0e4f
2e544c12294f
17292b722127
6d505758613c
731a7617561e
552410505136
2d7477325136

2b1649360f32
7f1112500b67
13203b155471
1a71421c4264
790f0e391478
682337483d3b
18196a410d5e
31164b1e2124
49254d656734
0c191e34524d
22274229193e
236f57182e26
0a2b32251f48
545037185770
2b16452c1f19
531d1c6b4c7e
093e3a364c7e

155c72131618
2c7f0d331c25
19214a3a6c2c
150527761c26
3c2176252422
3d31153d3e57
7422170a1358
44355b1d3b78
3060185d533e
7f4f53367960
202115211a14
151d323e651f
4d217f3e142e
48140f41434d
15431f58137f
261935662511
78462c302511

3c305d702027
53073f151840
24234b194a7f
1e394d243338
1f154b7d2735
241f7f5c1a25
1f1b38252624
2120371c3b22
210a7f2a6874
1914200e2074
16251a0e1d78
154d49140a27
152a53411c0f
326b2a2d4a7f
461516264b12
7f0c1c3f4f2c
4e0e777f4f2c

2f2f50202f16
44333d141c1b
1d1240791422
084e29687235
6e137e59191d
492426462c6e
261b1c4b1544
4e261f1a5a59
3053255b2933
5d7f68225324
22115d2b1622
24147f4a1830
1f176d501c10
1c54562b5257
157f3729273e
3d2834702215
7f4746202215

435e32733c1d
4c471d3a171c
1416591f4b41
1846172d577f
2c202e722033
24203f39720e
24214e641717
200e3b105b1a
34214251760a
33212a20113a
214343200f7f
221b53154f0a
0f1230390f39
3a3f2f53377f
3e215a3d1a15
6623165e7f2a
2f1c45557f2a

184e631e4956
3e467f53727f
4d434d1d2150
7a433f18321d
37300e7a500e
445b1f411e54
3f7a1f3e742c
35180b7f7060
31591b2c7676
4f0f13537231
401a6d367f32
54260a1f474d
52486e39326e
6d4329490b4d
162a37777221
12421b421d1f
200a27451d1f

1d224e195647
405751776e6a
4c4e38245077
7b45311e3436
3a3f78604516
70521d2f1f2b
41781d777469
2d1a2e786920
3462194f6e4f
761c1e5d421d
461c40367f1c
3f4c59115a40
6a542a713e44
3c3915311b1f
17203e2e3718
2d40142c1914
2b157f121914

7f2e7c30191b
566d0b332920
131a371a301b
11623d1f5555
0e2a3e271557
571f42516518
24103c0b2046
2512401b137d
176c25527535
451c1d16246a
1d765a1f1958
1350341f5a4a
691d46461913
2f357d714e41
7f134c205922
64121f4a5a30
195813475a30

0e61672f6748
297e2f24424a
7f166f135c2a
2e5f0c15652c
42316f127f23
477f18405e36
2e32255e3b68
1b1d4e28134c
2b5a15627827
231b237f0947
7f163c274c27
7f7279187f7f
744a6f3d7f56
5541672b4d4a
1d1f48255513
227f1d6a1b1b
6a55663d1b1b

1f251e312726
573922421f3d
27153e493c4c
25373934470b
3f256e241723
1b2023395c66
6f22114c2465
6e7047194349
3f1a1f0c303c
7a50683b1150
351729152044
1d414e7a242e
142b2c5d1675
062053353916
18531d203b46
36276d28150e
22483634150e

2c535540301a
3a68081f186a
101945213a63
14394b1e0a18
201718761874
472a343a134d
40177f5a1a38
28195d0f7f53
2c20330f6e72
4d141213505b
17402e142144
126e7c1c2b4c
211e6e5f2043
3d5a353f735e
451f1023321c
72091d6d2f76
7b4c42552f76

187f57346152
11333a712e78
7f30341e141d
31394a113146
323d265b7f08
467f181b137f
3a252120447f
17155a2c6e57
61271f631279
2b1c237f5f4b
7f115c493c2d
7f565e1c487f
52461d177f72
2031244c6735
181c7d655d0f
2c7f147f0c0e
6d1526520c0e

183834284b24
2f0c791a204c
21182c40373e
1a4f2f652962
2623133e1d1c
261728491f44
2b0d0e621409
7f7f73197424
102118674052
423e771c244a
2d1b4c161434
1430447c2650
3d35201d0e20
696629223a0f
1d4856061544
2f147f422115
702232332115

1f4672234c7f
433555373510
346e6f174f27
28561c267041
0e7f435a4011
22311e605f35
4a4126442662
26137f332e27
7f5a19463160
4b172d403b3d
3619767a292a
433817127167
4476425d347d
21431a3a304d
1e165e105327
1e4a0c73181a
3d2a332e181a

2350230f5561
222e7f333b20
3b7f29174707
233f41107f11
47770d2a261a
4f361b7f423a
173f21753764
1e130c3d7274
556c1f1f686c
3e18262f3e0d
2f1d4f7f3322
330662133042
5b7c53354233
4e46013b491f
0e1b5015692d
1d26107c1427
125f13441427

7a3f7c545b2f
6c6e276a1a6d
2a240921753f
12531e1f4809
18231b192c45
432954422a0e
131c2f391c3e
1e187a103225
48463a4c190b
461d1b267c7f
297f45291c60
236335130a26
6d1c5a4a187b
6c09796c3823
7f2c311e451b
743918145637
162a14485637

425465286531
4c3372592449
292b101e157f
1f1f2c224811
1f1f2d6d1f7f
662f3f187b35
1d327f371a6d
251312206147
4d4b4f334c26
6f1e211e2e10
2039662c3440
1c7f2e0d2d5b
3321527a1f6b
5f7b2c195663
331635381414
4d271b374875
16445c304875

1550202e0f11
0c212e382068
1d1324472e58
251b607b2c59
69195d102123
141e1c68280b
7a2814131218
453d56192557
0b430e5c3072
7f4c502d4d54
16184a082118
1657274e142a
30257a791946
1a350a3b3d1e
163e0057427f
2b2530732516
216030272516

42303e592d20
571a525c2753
21141a165b77
283e052b395c
51123067183a
50227f480131
3c28440f2542
121f4d251028
1b477f2a3b22
1e14201c6c76
1a2c26202968
1b4b310e4639
571404162317
3d422e2e697b
451144114418
7b1919114c34
400c2d774c34

230f3d0b1d21
2f6b636f245f
2c16757f2847
110f51583f3d
6419533b1827
2a2428605c34
431f125f1665
4d20611c7175
284c1b5e0b19
0d7f723b782a
361950351b3b
2d2c4d4a1b41
4b267d171c33
416f194e540f
227f284f2843
20242f591e0d
7f1e7f561e0d

4328366d213a
6642201c1e5a
181e781d3543
1422421f237e
33265a7a2b32
7f27355d2e13
292e44231a4e
2312611d4607
223e367f2645
632536224b6a
232d5723227e
1a5249176e55
562869242613
147a604c1d4e
401b13393219
42331f2b762b
59165c7f762b

1362522f7a3e
477f5d237f67
31332c1b512d
7f587e12344f
5f3848183f09
5a3f1a417172
2d7e106d7f1b
1a155b784256
2e382262296f
201d20221c3d
241a1a3d7a3a
493c621d5635
5324447f2747
2324691b6d3a
1b22791b5d22
28291e7f2317
2337432d2317

1a2d2f1c3e55
19733e387c75
464774182964
771c7118104d
2c50245e5b17
425016500b26
307f1a477f1e
1d175378165d
4e3f1a410c12
43151d513a39
501971556820
48150a152751
7f412034463f
324d29234e46
17132f4e5122
195f10791b24
4c31200f1b24

7f2a57314b2d
5f2f0b651d0e
23164a237f7f
17437a1e0e41
291d281e274d
3a1b4c59184f
2b19382e1512
1a1517123150
3552363d7951
69212d233226
3a7f52212e49
1f7f7f16192c
3228744b2e32
6d37477f774e
7b1f301e0e17
5b321d086e34
3156664d6e34

097f53167d53
2e477c2e4c26
7f186e173f17
297e10225c3d
5c2f2a337f1e
167f16146143
212517263e6d
201f3e352b33
4e48192c4f6b
7222177f0a42
7f1735434b2f
7f221012307f
445927767f6b
57191b1d4025
13206b467f1a
187f174f241b
496c3117241b

192c11235917
4957636f310c
12224e300838
112f37336f55
2e16247a1626
39221162257e
721912271a22
627b7c1e3f04
22161f636756
2f49721d452b
2c173c151336
1e2f037f1912
1b1d2a57171f
60096d3c3437
1b4d3f3f214e
2c2e7c1c1516
606768271516

2c2517595329
710b2523136b
1f1e79187d54
12547d1d5c18
312f240d187d
781d335a4c58
181f765a1220
22125720733d
4e4640775226
280c181d7e2d
224606212553
223a591e4f35
261a2d692274
262652682a77
52212371480f
7d1e1806327a
29487d58327a

2f3a2c247b54
17512a45357c
75337a286707
2b7f71217f26
21472a4f7d13
1b7916176d0e
382b242c4956
251d0933516a
374219480820
6924237e6f5e
771f1b375c28
77443a23437f
46506f657f66
382026495017
2d1a474a2b14
2e7d1d691b18
18373b341b18

1d2332213017
200c74762442
261818484c2e
1849327a385a
351f2e1d261e
1b40232a7f57
3312193d184c
7c77271e6449
0e40195d2e33
14507d17543e
28170f0c302f
283a757d6130
201474141c74
3d667c366018
194a66300b34
333a76292717
484245462717

1447191e7863
2a507f32395d
2d7f2b185316
3c5925166d57
68767a7a3d0f
163114215b5d
1c312a523153
2618603d7f49
6c5d0f1a1d3a
071c28332451
2810786e3534
375028164f29
7f765039375a
5c7f6211254e
16163e473013
2a50161e1612
7175772a1612

1d2d6e247f7f
3a7f58395320
3f7f681d7f34
2d2e07203e0a
197f16073111
1e3f277f4840
2b3d1e532b70
1a0d73465f61
73492a53131b
7f222643096b
2a1b7f7f491e
38227619304c
687239294139
67317f2a5b4e
1b161c2f5f16
1b3817471520
1a283f171520

6e463b442311
755802630b1a
1826261e4d47
117426260d48
4b1e0d201031
720c494d233f
2b11250c184a
20137b1e7b79
0d464f664941
091b0f1b1f7f
1a7f6326134a
1b7a631b4910
101714531d58
41393f7e385c
7d275e3d4e15
7028115a5944
2f50637c5944

3d6450460d12
732e741e1e28
221b3a151f7f
2944431f5231
58157f111e7f
6a29376e7063
19226c5d0e46
231e5116283a
0d4d511f1c48
781520373e4c
1e335e191e4f
2a540f1e4658
35183b0c1e52
646c6e345831
321a6f4a4117
733c1e3a437f
4155452d437f

0e0a71292b1d
46494a0d1636
1c1a444e6625
2110517a274a
7c15262f1928
45221e1d2a12
7f241f391507
423736155b27
132e1b2a3865
454f49283646
201a53251f29
263513451a3b
3c1a3c560d6d
303065262221
18466e5a0c7f
35242c782313
3977764f2313

4260616d361a
6e764e410e39
220f73141e79
2058141b072a
4c1e4111282e
29257c666c23
37173b5b2519
251e0f166d63
36487f51406e
4f1b1b225b2e
212b552f114d
2c1a27234643
53220c302051
653d6e497f50
491407220b11
641c1b385535
31176f7f5535

3618661f6f1f
3e5379742332
1b24587f7177
0c2c7360266b
7d1637401a1e
5e24213f6661
2c191919222d
43253e1c5171
3d3215447d61
267b7231363f
28123e0e283c
21397a4c7629
4c1f496f150b
3e6b62412e2e
1c7e4120643a
3a2535642c1a
4a0e35572c1a

403b717f3825
6f32562f1e7f
301d431a6e66
127a6f1e5d7f
292119763334
7f393a273958
2f10437f121e
211637154652
385d404c5812
45132542542e
2c38382c247f
3955201a6f61
262049522721
0d2e423b7f69
391d322b281c
5e24196c7f2e
565a48547f2e

1534712a7641
55694025647a
463e58257f56
7f5a4f0f3753
643a7a48510d
6e53216b5548
157f2e3a7476
191c3873546c
2f4b2770574a
72252442403a
49183031663e
535759165b56
7a267a763d68
4b2128173533
142b557f7f2b
23551c7f2d1e
28533e1f2d1e

205f2110603f
236871157649
33456d271249
745229287522
4b403e4d3728
2f231f7f7f4c
2d781b2b7948
0c11477f126b
6c711f211540
261220276054
33162b3b7f37
35077f143b54
4f503f6d3830
5d5c77482b26
13136561481d
2f410e712420
313f0e382420

783173342e1f
1f32201d293e
16214a226b5c
19077c191b65
551751381d4e
34284d184410
3d123e5d1a69
191b1615702f
314732684666
112427180e7f
267758261d45
1b2b0d175f39
20223b621b6a
20297f5c423a
78166b0b371c
6234180a593a
170e0f76593a

165c541a6a61
37287f5a5426
7f1327122b36
323411211f54
394711727f18
517f1620641a
132d260e3d7c
241924301732
327f135c252b
2024187f612f
7d12563f5827
7d1922125f7f
42521e257d70
74175842502c
1e2553125712
157f1c571e10
3a755a531e10

1b2d412c3823
1c673b65261d
17220c3d5d60
1f11692d7535
39247f210c1a
552625421a7b
512812611a36
7a7d15205366
3a4c223c173c
1e4075135803
18164e09253e
2a5a577d491a
50085e7f1f7f
687e40395f4d
184c634d5836
301b7a791b18
636073301b18

38127f502722
7f393b3d206e
161e55194c34
18213419213a
0b2d2c64157e
791c3074080d
191f7f1f1911
1f174328440e
180f3d552650
0b0d282e617a
174329323354
232b26133731
1c281d06144a
4a67574b6a40
51173835681b
742b1a603f75
64563c313f75

1f3a66267345
343a344d3467
76255414575b
343943186b10
5a2c68747409
377f15701a7e
372b257f3a7f
2a1f123d1846
3a71176a7052
49192a7f204e
7d16482f6e18
7d2d35104e7f
55516a667d66
743e0a190c2f
1a0c2e7f7f14
277f1725311f
3b7f403f311f

274f29190922
2b343d40226f
21161a412c1f
1d6b4f6a6825
66246750241b
7421180d741f
2f1417332048
6c795a0f2229
254c19401009
1b467f2b335f
15182d1f0e2d
1c5f71796f3c
2135124d1547
1528092f6240
1f421f3d4931
211f7f302415
3a3f5b502415

1a1f3a1b6f6e
1c3254314253
357f441b727b
313215143640
47747474440d
554518213517
3942133a2e3a
2918793f2044
7d641e2a3f54
131a1d39762f
35227f77282b
421214100e26
676b4b0f4164
5c1e78365f20
131d7b3d271a
224010711313
19277b361313

255663103d7f
18554f6c3f49
44797c0f2d4a
272069146d22
417d2f412a1b
3632203f6653
1f3512302c24
28172649112a
6e251f22625f
131a223c562d
291266793425
4a133315396e
7a6f5f50464d
7a3135531837
10237f5c2e1b
22531017191b
5f38423f191b

6e095b43231e
622710221d79
221d701e7f2a
132f4c20581e
7d0b1d2f2837
4d35483d513e
35222c182045
102177160f10
28243b476651
441b1d133927
2a7b2b2f2044
2552550f2615
4c0e630c173e
766c2e75754e
742f705f4119
581412305438
10110d4c5438

31544f45461f
75485e3f1955
22163d2a6e58
173e48165845
551d5814297d
7f26444a4b05
262c7d171938
2f220828576c
0f16555e265f
271e31343831
1f354810214c
172e2b1a1f4a
171d7a2b260d
22146b646e44
38187e73411b
72261e4f477f
47464c3f477f

182b511a3226
1163602d2a67
1d0d68393c59
25654e7f654d
741948232327
5a181d31362b
7f14172f140b
3e333b16405a
4516182e6164
41504c281b7f
1c1e6f2d1c39
272245566b59
1a26592a184b
583f5c5d4051
253f1a2b267f
21142d3d1b12
5d2c31451b12

494151606416
414474372330
2511511b133d
1d501820533a
4a152647203b
5032765a2146
291f3359172e
172449192c3a
2e467c4b1b76
5f16122a255e
1a323b1d287a
273269173b34
30110b2c174c
2c6a6b2e4373
56184d45541e
6a241a0b5725
154f2a535725

215f65112410
0b5b2f0f193e
251c2c7f415c
14353b626748
6b1b437d1a2e
4b211c5e2359
2c1b12361c0c
3e243e216869
3c1c1a636331
487a5d19371a
29143e1a1b28
1d114237451d
1c254a1d1310
732f66380407
137f6f5f0c3f
25343530180f
58360c3a180f

3d61767f0929
6a120a220d79
261a061b216c
1e6b4a243451
401f1b3e2f3d
452f39216e66
311248321629
2e162d1c492a
3b1c3d425230
3b162d2a1e30
2a305019177f
2752261a1f25
4c134c24235d
2b0d623d457f
352272454e2c
573e21357f1e
227f3f667f1e

125773285b49
425d1c387235
443c1c1f1d1f
7279520e2337
5b250c3f3c0f
2455167f3a7d
2d76112f785f
1f177f7b7a39
3b4823335739
6e1818354558
2f1a1e2a7f26
434e3e164a45
4e3c24552119
5e5c5f166310
18216b6f2727
264c1b15251d
7b4c6d34251d

1f432d1f6c51
43302a367722
504a2a23576c
7f2954233810
604b32254f24
2e41194f3d62
29701c467c78
162115740f13
646414232a54
3e1a2d483a18
3e164d4e7f23
3b7a18222343
434f26344c39
3a24260b4342
191a2d28501c
25481e452f18
5c045b332f18

761536381b2c
36471d322059
15190f237f65
1830491b6843
7f2060781b51
7f2e4e514b7f
460f314a194b
2d18061a5836
29582d764443
0e2d2d1a4c75
1e77232a3265
0d5c141b411b
712f151a1e1c
75214b766e51
76233207461d
50211b256637
120c42606637

163567182845
12633f7f3d56
7f1b5715430f
3f534d1d4416
0d3f16157f1c
497f0e407369
212b213c385f
3b1a2e2e4859
54631c4f7242
4c2a1a7f7c31
7f133b324d1a
7f3e4615287f
684840397f32
463c5a3d0b33
1e22547f780c
237f16442519
39113c282519

1b0b251f571a
161d70342309
192332467009
17257a356126
192136181024
3f0d1f332e3e
42240e2d1a4a
7f7f73207411
3818171b351b
4a4a7f287a3e
172029133725
1b071a794c49
361f300f1c11
376324391147
1a5f0b2f474d
2b0b7d151d12
2b6f124f1d12

3d3c7f405d1d
7f141212104d
1713221b3373
14297a101a4a
542b68671a76
2e2c3811446e
2d217f200b62
25107e154549
1e4a3d3c2d15
5316132b0e43
1a435d300d46
173d7919640e
5516606f1376
221560456c41
4b1f44592417
7a261810347f
5a4c275f347f

10385e305653
3c647f213e7f
7f377f214d4a
316c46193238
4c463c6c7f0e
187f245d1e2e
10290f7c3e62
231a2c3d6421
6045202d0962
3317207f642b
7f21493c5e25
7f2f6117487f
4357232b7f34
5f60183e4e27
1c136e156d17
267f146e2315
526778582315

1d1e16294b1e
30711759274f
20160d406352
13263f565e5e
581b4d5b2425
182d155c3a44
4d17180e1b23
7f7d78217f17
2e360f24165e
70447f3b5355
30196c1a2135
290a1e79724b
221475781426
095c3203451d
244268356032
2f2e7337111b
59567337111b

10522e2d456e
52391b44291a
447f46136632
3d507128482b
2f68102d4915
3d3e25400e35
293d1c312e24
261c14325078
6a6222574022
341c2039276d
2f1f5b7f2d38
4f46181f7d3c
7f7f2534371e
7f4b4722333e
191a7e325e28
1a440d751d24
673e17511d24

2b161e245259
3862191b2e3e
3b7714133a54
322f28144530
18751055341e
682e20323357
343d1740302a
31161c3b7f51
6a601a5a737f
521919311a1d
301f73784624
444f53123971
356c2731403e
4958644c304d
101a274b631a
303f12691c20
204128171c20

710b244b0c23
745c546d2469
1028541f5d2e
135c23263f67
662453301435
492450160c1e
32202b401246
21157f184111
0f0e3959422e
331f1b0c7f1e
2274171a176a
1051651e310d
5031717e0e66
3f4a7f427855
762c36623219
7f060f5e6533
702a7a716533

345136352f0f
7f6765332459
18213816417b
1f1c5f20255d
43245120247c
6f2638276810
3024752e1543
3a17561b181f
351a564f2928
2218303f6b52
0b311b233956
1e3c0710563c
4730726f217b
582271432e67
30183259351a
742f19765a76
306a77645a76

1b2e72181316
227056271149
221316430d18
254b7f7f4820
34182767232d
111d1b421720
7f1a1a3d0c0e
203876161e6d
394d101e716c
284b48342331
302130191a2e
19105646661d
161253201c20
49133b3d1629
203d335f287e
2a2a2c4b1c16
1d216d1f1c16

385d35746010
5f06410a1a25
15165b185b43
186b1e1e2961
0e0d530b0c37
78097f7e6161
452d41391d5c
1f2050176b36
11197e7f6c44
2b181b1c3248
1e234b111066
0c4d1b203e4c
0d2050011421
63527f3e457f
48123673591b
7f111d3e5c28
43702a5b5c28

1a257b122918
342b3f2a1d1e
161c2f7f0466
0e374d602467
471b50791017
1c2c22102f3d
411a1659256c
3d1d191b497f
180d1c4b2e3f
207f511e7f50
2717262c291d
170841417536
4b227c761b62
553a46396237
1b7f4a0a1241
2e1c31491517
652c51221517

40570a7d0c25
7f666e4b176d
1b1750162358
17165b215b7f
151e147c1f43
7f273b375f71
221f463e1c30
1b127c244e02
131d414e2725
5118292b2c4a
282d5c232a7f
25307517310b
351d7b20182f
4f024b393550
341d223c201e
3b2e18717535
714513407535

1626291d213d
402f10197224
413e71132b13
7f494b142a1d
7a2345204414
6c38201e6d5c
207f1e2e7746
1a21557f6165
3526150b5b17
1e1611254e1e
38141f3d621b
3a6b1b221637
3a4518243367
5b427f3d6742
192469474925
28381a4d2815
7c783d492815

1313261b5153
1c156f447f15
384053162047
77270320642c
1d3e0d39431d
43351c655142
3a74213a7f1e
2119537e781a
436625384028
341822361d71
38202b4c6b1c
3779541f3f56
7f3d05243b54
213a0d4e6c30
17176c0e5516
204e177f1510
252d42161510

7f177a41632b
5b7128591f47
2623401e7160
14137f1c5238
0f1f72281958
391b4e203b2b
34123c4c1918
251165146d4f
40462c66503e
0d17231f7f7f
287f63211a6f
277f4b186e2a
62284e5a2559
606c41795764
7c1a73185217
611b1b0a753a
076e7f60753a

1362221a7f59
10275f664427
7f267a131502
2869491e7e55
693e64087f19
387f123f201a
2e311b43427f
1a204a3b434a
6d6a105c7218
1e231c7f1650
7f1c713e4f34
7f1641157f7f
2a4332617f74
6e5952443f36
10350d537e11
197f1c291c0f
58535a2d1c0f

202313274422
31395b502a5d
171314384252
1227482f6724
73174d671411
2f3317235e1c
4c141a652a2b
7a7f64184560
1b4a153a1070
71457d3a3d1a
391665172324
32521c7f6512
151a15622343
2f08564a482d
1c5a1d413c4d
26257e271d19
7c7d61421d19

3a371b561316
755a423b1b2b
1c176f1d4d7c
1351791f015a
35181c311174
7f1c325b3f61
310e73271f41
18163f210833
153c356f7f3e
49131e175a2b
234250102950
0e3f151a511c
472329571c42
6e2442367970
491b61071728
44161b3a327b
3a3e1847327b

257f2e227e60
303c545e3063
7f2558231150
281e62137022
4e4620447f0e
5c7f1a2b412e
3d370a294468
2317132e4864
557f1f4f217f
1d23217f2138
7f2272475a3d
7f152e15567f
29541f437f44
7f5a484e4e54
20147f427f10
2f7f156c1f15
5d5e182f1f15

243d1c235123
211f0c501946
0d0e4f46284c
162244642461
231f5b6e101d
391f1f743322
27080e341838
7a7353216b5f
294b15637f5e
4b49790c3e16
1a1b46270f20
0d27587e1315
1e255611112f
5a1461302f3d
18435f250e34
20077d701b1d
734e252c1b1d

282d6d187f71
23226132313d
4c785f21473b
3c6e32203f53
147f69294613
284d257f703a
2b39226b343f
2d1e0b352b7f
7f6a20410c53
3c2c204f6134
37205a7f2c48
4431321b3662
517f604a477c
6a493725734a
1820256d7a1a
213c10572921
447a48662921

1e402022767f
3d36273e4376
39794e16105a
3c6e37187d44
6772441a261a
21292c574443
243118173961
2819763d3f6f
724720563537
290f23460c27
351d517a3d22
36684d212562
6f715845464d
7655622c5c1d
182548466e21
322d122d2521
30762c192521

7f2576491b28
46314c25235c
142009181c44
185a61291b2c
7c1f260d164a
20253b121c1c
2b21323e2046
19160e190c5d
3859362b095f
421d261c645f
0e7720201874
107d7f0c4f38
1f27321f0733
1e4a486f4a2d
7f225b174f21
6a1016556b3e
6220454d6b3e

2e31244c2926
5c13245f2377
131a2512253c
1b7034205269
732a2974157f
7f1e300e5c4d
3e2478241239
291e1d203373
1e4d4e7f6f1d
1d1616256b37
22375323154b
0e4a3c10641b
18127f251c29
56104d253c6d
39127a734c17
780b1d46487b
7a1c645f487b

152550284b22
452e574d0c40
11180e410a5f
155f6a7c2f19
7a1c17731429
651314591c39
6f1813551830
4a376413445f
15611b306f75
4852532d676e
261410231a33
1f682a522e29
14182e5c116d
5d5573153841
204e4d5b217f
191430431918
635452471918

44307f5e2712
74273d390b54
121722135a50
1935351d4d4e
531b6438142f
720d7918345c
1e27444a134a
25154d1f2666
16127d6c4541
761524262779
2d312512225d
175a4f112d19
50272f21162e
384f462b7062
4d192f645215
7f1713445b28
736940595b28

31225219321a
403518351627
1a164e78155a
0b634f651d68
141f7d73260f
2a262161185d
3216192c175f
4e275d1a6462
414a1b671061
58765e374e69
231354172420
2f1d5239251e
372d58391467
3d3963245317
207f3f68224c
1a332f1f1f0f
5c2d0e151f0f

4832747f141c
4c071d311a37
1d184a1b735b
153d5520567f
55205e54253e
3d263c334a5c
331b4c211561
3b15761e7948
344a4357492f
481c2d247f7b
3035262b2c7f
1b7f5b154529
22315b152209
317f3835596a
342229583318
5239161d7732
1726437f7732

1c385f212c48
372e640b7f40
3f37211d2340
7e77720f702f
342f5d584d13
47361c5a3350
3c7f1b537f45
18137d6d0b69
374c1e536f40
4814192b341d
2d196c427914
3e45271b6f54
7f3e23163175
40607d286139
0f2312494a21
3746166b1c1c
3c4f2f121c1c

1d124b1f793e
3438691c7949
3a3736194454
745d302c3725
3e47145d3e29
2c2b136e6707
307a28377533
1d1c5a7c4845
4b271f2d6d39
381d17524623
411361367f26
3c3f71163d29
483d72403d23
7c6a23176e4b
14107116771b
1c3e16791c22
2a6f4e0f1c22

6a37622d1128
265d02711e1e
0b206d20401e
1a4229196448
582970780f4f
602245574b07
161d3177253c
2b2021163349
285a294e2a16
6c1e20245a7f
2672111d096f
205468191516
1c2549131a5c
0c326f6b5a2f
7f1349372117
5f2e1a4e5746
6c5543575746

157031297f50
3d2c55364776
7f192117601c
32781f1b1740
7c3d422f7f15
1b7f1e581868
342627474057
261833354153
4536104e6f6f
5823127f4419
7f1c16375429
7f6a7e144e7f
2f4c473e7f63
246e42156755
1b20324a7f10
347f156b2f12
3e2f3d412f12

214244245920
382e404d1a57
1f194943205f
17563b407f2c
191c11601c1b
4929156e3e23
652e0b471a42
6f7620233b34
1e43123f2b5e
3e4a74217310
1a13480e1d2f
1e43767f2c55
312b2e202072
653b75204519
1d564e2f4542
152f7c111813
2f3d56151813

3d395c563919
76596d441a55
121e4417427f
19683a164d12
19147a24137e
51153414313d
21187a622916
2f0e6614211c
2047375f470a
731121142359
1b362f29283e
1415651d5b32
1d1756461367
413a593b6b33
4f1b75071f13
6126136e377e
095f6725377e

207f58346763
444f507b3262
7f2548247464
2b393a196f1a
35474e6e7f11
617f1b2c4865
353e144f3a5c
262367337a4a
6359185a3f4a
4b18307f5435
7f112645532d
7f2f45221e7f
4f5820227f56
3e3f761a1642
19206e686b10
2b7f1f2d1d1b
3d1371201d1b

2b0a1a234d12
37175f192438
2211083e4159
1e187f582b1f
360b6c761917
1b35136b4a21
401c11701f1f
7f7b18186550
131519685429
4143771e3329
1e1a54191a22
122b6f74251e
3f1d2e241829
417f3f351240
27483f114231
232a7e12251b
46653a18251b

1b661c193877
0c55701a384c
307f311a5e3a
342c3c1c4030
777715193f10
193e26265d55
21501f22304d
21154b3a6e1c
713e1d6a4340
79211b31595a
3b137a7f352b
42476b196a4e
6a7f5a6a3851
337f574c5d2f
1a220c3b4e18
194a102a2715
4d141a1d2715

1d44681e4575
2b103d292f11
3d7f4b1a6e43
313c4f1a4f13
597e44264117
16422015241c
1b43162f3973
23167b363b21
616e2d297860
211921543f2a
4b127f674b28
47524f165d41
2a725f4b484a
7f6920323846
1220286c671e
353e1863171c
5f601b34171c

7f276a3e2427
5376441c1e7e
22187920261f
1222202b0a34
181a1a5d1c37
1a2c492c1e6a
461e30781834
151d7f137662
391b3f7f4252
191c12222d4e
1c74141f2670
2821390f2655
3f2721061a57
4a5b5f7f2b3c
7f261b652819
67340c6a6532
4e71235e6532

426d7f39672e
7b3658452847
1f1e560f753f
1d62402b723d
761855171976
56323c187c3e
2a2478561a6b
2f1a17252515
313b5727380e
07161f134e26
15391f192041
2150121a1c27
221d776e174e
4042783a1b65
31137f6b4920
5d2d171a4b79
384a764a4b79

044729263f17
3c5f603f2725
1e18293f556e
1e30727f2f52
710e233f1f16
2a28186b735f
7f13130c1131
4f35740f2d69
3a1513612f3c
734a56351874
171b221c1524
18765c49341f
4a110a412752
21711f17101a
1d451f204a72
18232c662715
67695f2a2715

462a6269142b
46572a741559
121118243b7a
1c1b61205939
7c21216a1d3d
411c7f3a3f5c
36243c6e1f0a
30193a1e4231
1f387f543e17
082216173461
312d4d222e79
2335141a5f34
57167254164f
7a7a66464e4a
481e0e492f19
772114296322
576c27486322

27047b123b1c
253038101b6e
281b257f446e
0e2374633655
29121f752418
351d1c396818
4f081b582615
4c2565185464
1a4d1b24542f
1b7f60397c12
2b0f6b2d1e30
2d2e39451412
5013350c1967
172b550c3a2b
177f66295236
342731701111
556412411111

443c7372482b
5c256d651121
1d104f12597a
164053355a50
281650591c2c
7e17357a6365
312b4475120f
1d1b451f311b
2e5740747f36
30182919597f
3539222e1f7f
28785620751d
4f142f55253e
4b605f347f7e
40177e100920
503317697e22
0f7f1d607e22

1e2e51144241
2a1a363a7a72
4f426c1b6f1a
7f7f36141252
713a72455f0c
725020341822
387e167f7e7d
1b210f783946
375c193c5a1f
141611544031
3f1f4242723a
552c39197853
51435b163e52
7b1e4928241c
16242f2b1f28
2f3e1d7c1c1c
551b21371c1c

2260670d473e
432f3646795c
414016196b36
72722c233e1a
1946784e472a
2648107e2451
437f26357669
220c2c711151
4f7211260f0a
511f2a391134
3c171d417022
315939144e48
7239561b4273
4a166514114c
1511344d371d
2c5411590f23
706714270f23

7d3748392e28
3c68361b2368
1f0e2d1d2725
1e09251c537f
591e6f211757
541646642368
2a13382b1553
131e321d3543
2e522a30601a
251e1c222b54
107f34202e5d
2c582b245e24
4b160e26185e
305c397e2050
78194e164517
48132d546f3a
745b2d6d6f3a

156b471f7f63
397f6d6b4840
7f277f1c1328
3c6c48283a25
673229117317
5e7f1a436943
343a1a484470
341b5f305a33
4e530c292957
7f1c17763644
76192a3a5e21
766c23197f7a
7746224d767b
436c06340b23
1b1973593c0d
19761c6c1a1e
46354c2d1a1e

211655322f26
2b6c35321909
1715403e1567
202b44316b27
611d225f1523
251b21080713
5729084a1b1a
717f7f1f1d35
120c19071518
38407a24704c
221b610e1720
221f2d750f26
2e2a1d611f24
11305e54702c
1a544f4d4f41
4222770b140e
5b665835140e

482e6d4b491a
7f7021310b36
132137197265
11564c13054f
132b2d17117f
5e2f28604967
4e0e79251840
201210171d30
1d1b2e29793a
19161d275479
2039181d1149
195d5f1b6045
501617211556
2664565b7c69
471c7f1f0e16
7c2b1e6f317a
2b1a432e317a

277f6a296b65
2d4f78483b19
792b531a266d
292a5e1c6615
713936787f08
657d254d126d
2f26181e3a30
12196e29304f
66641d6a061b
11161b7d4726
7f155d3d5536
7f362219727f
515d54707f45
392c09404922
1a0d3a5e7519
287d197f1d19
72461f261d19

1b0a57203c14
3b456e382843
1c0d02421954
1403456b4c1b
502753251821
6a2618585444
53131e201d3b
7b7f3f1e166a
19591238222d
4e4e7c2e4364
15113c172517
145e0a7f402d
3a112c67145b
27227f424c35
224c64480d3d
2a107f2a1518
7f463c0b1518

166f471c4b74
427f525e3229
40706b103d46
4b731a266742
7f7d16534416
53411a18317f
244e26123277
2d193c45744c
6e3118407d52
4c1b2039424e
2e207f763f31
426a381c7f55
777f763e2f6f
7172342d4e30
232b6e63410f
0e491160190e
23213b2c190e

256d2b206b70
173c2b733d7b
357643145b27
2e65481f5420
2d70235f3319
6d2e2230490a
38341d19305e
2f13543c637f
41201a23344f
7f1111484b69
3c1e5d694f33
352e720f4e2c
7161592f455a
7f106a435844
1423527f6c20
1933153e251e
4d6c6224251e

7f5d723b0d2c
54134563177d
20183f1b4921
167566295e24
0d1b16282935
542739122752
411a2d39174c
132339137f55
332a3f167e5b
62171325487d
1c7f501a1b59
201956162a4e
521e3f6b211f
712b517f6e4e
7f1f6242611d
5b3515305934
394429375934

341a183b6727
43564924162c
1a19151b1d57
194c33120f23
24217d2e1f7c
53163b1e126a
191f7a5b0b6c
1b1c721d1e63
3e5e543d2961
33212218526f
2630560f1a5e
181e6b22113f
382c39461848
704b7c4d6033
3c1a2a544319
621d20346678
60361c456678

0b3545254821
145d50251609
141b644b6d47
1f2d6e7f484e
761a18642020
3e31254b506a
7f19204b1b22
4a30470c792f
081716285703
24564c204476
22150b191831
110f2a47191b
0a213076156c
280e661f3834
1e474317537f
1c302b631f19
753a2b471f19

4d3b29642a20
3c6a6e3d1e68
171846134f48
1b46171f2426
731e6e7f1e2d
5916796f1022
3e294d582252
2818471e6a44
20257a1e624a
741a1a312e27
2b1f5c1d264a
2766211a033b
3f161b71165c
0f3677457d72
491d2a375916
7f11164d542c
6c35784e542c

204f77235220
2a155267183e
13116976145e
180d2c5c4e5e
4a136f610f26
582a1c5c3c7f
3824142b1f19
48226d195341
14411b671873
21796e236227
1b17501e1a31
116f79411b20
2816317f165a
1e2c46472315
0c7441263f4c
281d3c461f16
7f6e6c4a1f16

3f2a357e421b
5b3f56632737
231620145e69
1b3422242b42
60202c7f243a
26173610740b
221a3b7f1238
1a196c177212
3e2b347f5813
22152d326957
363d4129197f
2a617f17204d
59261f23164f
6d293043647e
3e1e60791113
3a3118137f36
6b4a277f7f36

1451231c754f
2e4b6c1b7f71
424a262a7068
7a353a1b480b
643a27444d12
09441c1c6c0f
297821447f32
25127f7f1e15
4620180a427f
6f2426567229
401960487c20
535f3f154a50
653022254745
382139195a2a
1c257f5a3228
23421b561e13
2f794d411e13

16191631354b
564952187f77
35327c1b1e31
7b5b2822124b
703c327c3a37
4c3e12552e4e
26751f2f7d7f
1918147f7b1f
5b5b1d5b2923
3e18153b191e
361d4c4c741f
3854271c4040
6d2c73642f5d
57633233632a
12104e776b1e
30300f7a2517
271b783a2517

7d075d3e281c
60176c492977
1b1a691d735c
121a251f3a4b
0d1b6446144a
631a4b697f10
181032211464
3c18241a5b77
2b4d37534613
4b271a1c457f
317d1f281763
204c7a1a0727
4e266c542035
0d533a7f7f4c
7f147f5c3314
7524216b772d
736e797f772d

116b1d1e7f58
1f297f7f465f
7f1b580f6c4d
387f341e7a43
7f3b2d1b7f25
347f1f7f703e
232512193f75
18122f341878
3e3e14236d65
2f1e1a7f531d
7f165c4c4e22
7f223c116f7f
4f3b135d7f7f
7f544114363f
211f4a7f3113
3f7f1533181a
276c3c3b181a

2b2e43225b11
3a6367611f1f
200f27475a1f
183d5f3f1c3f
5819483e1b1b
303424252122
471a1e1f224d
7d7b61144e5a
28081b492a0d
5a5c7c3a2817
31133e152e30
26214e7c2d1c
0e28216d1f5f
37126317234b
184d0e3d5e48
2d2075551c15
784e3b101c15

4c2e6a4e5f1f
5d712b232039
121a51176860
11557f183b35
3924682e187c
1b1a3766076d
3f147f351430
191858162642
1c1a383d4f21
7f1516213325
12384a222b32
22586b161015
49304c162316
67141f361c64
53206e774816
71271718317f
6a25475b317f

1b772b2d5158
387f4b782f72
7f3279167257
2a48221e2615
3f3f185e7f0d
3f7f175d097d
1a351771497f
29194d2f5166
4b3f1e437871
2515177f3817
7f1154454713
7f5e4e19557f
36500f757f24
3d1f60501b3e
1414227f5a1b
1b7f187f1712
2b6e50171712

16545f212517
2353686c1f1c
2e1d374d5a0f
1d3a24534121
111c751c3f1f
3c2d14722e2f
53151a2a145e
7f7f10256d0b
39360f620e08
4e547c20342c
3c15741e2135
2958477f6b23
3b12695c231a
195a6e254a28
1a4f13311e34
1e347f362d1a
473b23312d1a

25216c227f70
351834332418
3e7d7f213979
3f5a611d653b
447f35244311
1b4f1d4d597f
274923542e4f
2f1b2f312d7b
7f39323b3a2c
4c2132413024
361a4d793a1c
463563174e66
67737a353e1f
5a65493e5a44
1b2255207c1f
1c3017601818
3d527b341818

2157201a5c7f
5258613e4731
387f6c20273e
3b2f651d3a3c
7f7f661a2e1a
5046276b393e
2337141f3b63
0c172b441139
7f623342763e
6f1f1c3e545d
281d477f562d
2d2b310c2655
477f1f3d3842
55312434534b
112744795b21
31351446211f
647c250f211f

7f2f1f4e3126
54355b68211b
13216a224e0d
181d261a0e3e
3d2341232641
0d2c455d135a
2f153b1c1c38
121b2d102627
1c3a38407d4e
732318232239
157b0618186c
1c325313483d
1b255d461b04
1a1d797f6836
7c22106a3120
6028175b6236
581c0a4f6236

4025513c5f20
77152745142d
1e1d550f6758
12567f244f61
59175c573376
791e2f7b493e
2e13710f1348
251b5019277d
26094e232d44
5f1b2e1e086d
213b4c292061
1a5070163037
4b257f231a08
773d6d5d3051
2a1c3b3c561d
692a1b61577e
2a5c4038577e

12231d261d12
337f14451941
1511443f643d
1e58297f5d1a
151873601017
1e1714655542
702a11681b54
3a3c1f191b41
2c5e13676557
77483c2b245e
1a1211181635
111057433326
550d774b0909
3d5f2819653a
0c467971547d
2a242b5c2514
56444a132514

40365d496e0d
5e35455d152c
141c4c183379
171c2f266b71
321242640f32
77137f3d440d
44203a511b0d
160e35172a1a
272a7f1c2343
62171c19302b
2c1e1c162160
115b5c165c1d
3d205c78131d
2c567f5f6e7f
421006134517
63270f32462c
566f4f62462c

205469125616
227c3b450f30
1818367b7729
102444585c57
211546681a1a
5724241e2550
3413171e1e1b
572439252709
0f0c195c2470
407e6337615c
19126c19133b
242e7a383524
1f1e763e1b58
470a6c4f2625
1d7b34324645
252c376f1c13
595056171c13

4563167f5b1a
512c625a0c7c
231a25222c1c
0d396632787f
5b297f64122f
762c2d0d391b
12103a7f1122
261247144739
1f4a452e626b
6e152d1f433c
2c4553321670
257f401d4e27
28227f532b45
60645237437f
2f161a2a1d20
4f2f17037f28
151d22587f28

1e0e2e217443
28311a4f7a4a
353f7f247f2c
7f772112782a
7f2e4142380c
6f32267f7f1c
157f19717f22
31123e7c127f
414116446469
5619152c1a4d
28154a397f3d
4143551b4734
7e3c5a6b2168
4a20492f283a
1123132d6b25
1d40164a2517
71576f3f2517

213563262946
2041657f7d6d
354276233d11
761079265420
7f3759603d28
5548162d5a46
237e242e7c4e
1d1a3f7f5c6a
712c12163d53
4a19172f2f1d
2c1328446e35
3561401d474b
7f3c46373475
0e7752185d2d
13141c2d7b20
2852142a1f15
49452f5d1f15

76457f395717
3c1f4b492332
1b1d721e7f1e
1f27261e2e4f
5e1b141f1953
29185c1b604e
312140551c16
1c1435191353
283c2c436b0e
16212a216e62
287b3e1a3243
25503c106954
4332274e1a6b
5b2236775447
7a196e2d5620
501f186e6b31
170c27646b31

0f3212127f70
23664b433c37
7f195f124943
394e651b7f4b
32454225741d
397f1b5d200d
382520493e7c
1b18202e7e6d
5b7a1912697a
7e1f0c756718
740d393f4021
74451016277a
3365131c741b
3963502c443d
0e28647f2518
1475187e1e10
7b43342d1e10

173d752f5f26
3a6a481f2a10
1810193b1831
1d1e48337a3f
691d2b071c1b
302b223a562c
4b26181f2270
7d7f62261a1a
1f19215b4e5e
453e7c326928
2d150e1e192e
2b415f7a3d1f
1a2b1a50195f
5b343c381464
1f4d5b53633f
2f187e791c18
06423e1e1c18

403c235e4020
5e45151c154d
1f0c3a13344e
1b277f187521
75212e66267b
7f193846263a
41127f241311
2f19431d5b5a
1e203c5a6531
6d11282b5b4f
21444b371938
1e2e78165049
5117326c3149
631541424e45
501f477f1523
5e2d1e76367f
7c5b4071367f

1769501f583f
0a396e40347a
693316241054
242378153d0e
34454a6f751a
25692144151f
243b1a2a4d7f
1e156830375b
253d15625b62
2a1f24693d1c
731c292f5834
73207c187f6e
2c394f46737e
757d194c103e
1f23582f5d12
1e69122b1417
6b2546131417

1e47232c311b
57124b742422
17141e4e362d
190f296c342a
4123317f0e1c
41161a334561
2e180b332454
7778531f5a73
41291347673d
124a7f0e3953
10152f1d211d
0e37767a151e
251f3168131b
1c71530e5013
1248181e4934
2d207f4f1d15
74651a331d15

16664f2d4d7d
3f7e0d502677
427f5c182b59
373379271155
5f7f7f4d3b0e
3148282c5721
0d45242d3428
37165e427268
7a281f627f7f
47282a3d5211
2b217f7a4842
451130212353
77647f522077
4d4c31232c22
19263f272a19
2742102d1a1d
2a597f271a1d

241d5034597f
44395c66362e
457b301c2b46
296b6816471d
387f4b113417
71341d756118
45361e663723
3616323b507f
7f71261b6d48
771616383479
3b19687f3d38
47344011265b
3b7f5d744760
5d4d24165c4c
161e385c5c17
315211522324
583f2b522324

752126461f19
75212b64202d
20172a1b1637
0e64121b5145
0c2454172d44
662644143921
3c2136391a46
14202c195221
3e1f306a4b5c
381e1e2d2423
1f7c1823195b
15403b180d21
3c235365133a
1a0a4a6c7e4a
7f2850453e1a
742c18305b34
1f3840535b34

383b13384b2a
7b3927291e69
142619190c22
1c707523561c
5b1b53581b75
411e35485834
3c177b311a23
26192f167e16
2f2953682940
7b1a33133f66
2327651e3150
13360f12651f
401e7f151a40
2e2f1f513b6b
31170d12601f
5e241443457f
1c7f4f3c457f

133c63373624
1f4e0a211b24
1f120d3c4c49
18416e7d1e13
4e172e38221a
62182c511c32
7f1e1360193d
1f3d772c0d0b
14341d0a6921
2e473b38063e
1c104d1c2f2a
104478475c3f
5c137f121c42
6a2f2c480f2f
1d3d3407167f
3b2a2b242219
757f224b2219

4b4f3f51632a
5f0b15681e35
261e2517387f
14642121103b
771f5574263c
56207e115017
39173c291634
2a1677176135
322f7f56460b
201428212b24
28282824166f
307f4b1c512d
242d3c58103c
120f6f72736c
4c194a1f2f1d
7e20121f4a28
441a30664a28

1b437f155f15
2f2c4a3e2256
2e10357f2529
104a62554338
520c3e20351c
1839231c5b7f
391f224b1f4d
481f68176813
0c641419373e
1e7f642b1227
301c671e372d
38757b392a53
5b1d727f272e
4261622e1f50
197f48385049
2f292d1c1d0a
34541f0c1d0a

4022617f611c
6d4854311a50
132967141453
18717625225b
602b7b401c4c
523432466f73
312147611a2f
2a1426164e35
2f15437f430b
2912210e287b
272e2d2f0f7f
1a24250e112f
5b2a314f2167
563c4c53524f
3d2124164f1c
5c19134c7d34
1b7c4d7f7d34

111b47263b48
444230216f27
2b4465247b27
7d4f48143d5f
5f336a5b470e
4c42225b2c7f
3973193c7e47
2c18737f3470
477f17547a3f
66221e23041f
20207f377622
384c7f205d3f
7c3673112d4d
7f6a75383e5d
15176f287f2d
1f2e19541322
240e78261322

163d491a4f45
3146563b7a1d
2e3d691a4844
693d1925585a
634b4e603318
422914611b1a
257d1c1d712a
26194e6e3135
4a4819646e46
200e232e3e26
3319234a752e
412118183f4a
2d37775c2f70
7f7879204e43
170e2b775f28
393614452a21
404114462a21

784656351617
60196d462d57
191a64182922
22125a162468
331e493f1a51
320c49725d2b
2a1645511a41
13134c2a1e4b
2e372a7c7f37
5c17261d5646
1a76492a1d73
1e4e7f0c5921
3c1a7943220b
635f1a53525c
7e147d483a15
470a166a7337
4477366e7337

0a2929104c41
1d7c396d2e40
791a7f1a1d31
2b51492c7c4b
413856757618
557f0b504929
3624190d4749
16166a2a6a6a
3b28123c2a74
6325177f5956
7f173a343f1e
7f136c13617f
3f4619777d6f
492c403c2a3e
182546602b10
177f15322414
7f4c7f322414

1c2b1c273918
1725630a1867
211e443c322a
18457f355818
25243a77261b
6b211764487f
6e191846256a
7f752f22736b
28192118683a
5154753a3040
1f172a1e2b20
37353f7f5d18
1c2d3b66187d
30277c47331f
1157273b4d46
25377f231a17
7f4a5a2d1a17

343365552c22
4a1546291053
1d183e193b30
185b41133915
76227f3d2279
5f3334483058
331a7a5a1a38
281814146d57
0f1640276470
4f1b1f272865
1b452e161648
156e2d233936
3e243a7a1d1f
5b32482f6e3a
55187e711517
73251666377f
323d5773377f

2739791c7f55
3f75597f3a39
7f2b37223d71
295061174244
5d3810317f0a
3b7f186a296f
2a321a393b73
1b173a306853
447f1e26556d
56222c7f2939
7f1947405627
7f7f1a14697f
504c51637f28
347f4f28792c
170f78376613
2f7f23761f0f
3f3e3b541f0f

1a3964254f21
1b2b131c296d
1a104f423e76
1c511c6b586c
44212a7f1214
5822195e4b26
4e1414371e68
717478112c21
2f4c131d4470
3d417d29614c
2a21481b2d2a
24687f7f1222
202f4c1e1932
5013720e3f39
1e4f3b1a4436
241f7e1d201f
3d382720201f

167a501b7f7f
4745405f3053
447a701d2a13
2d505c231b4e
1f741c25460e
295017494518
3b3d25472b41
15175f397b0f
7b741f52407f
4823224a6d57
3f1078794d1e
4444061d5641
45604b1a4326
1c1b05495920
11251f644c1c
225a10101e12
1f074c2c1e12

20671719487f
48573c7f375f
3b795515776e
2a5766115713
3b7a7d5e4519
31552b17500d
3b3a13243f4f
12193b466d49
7043170e3d3b
7f18223b7552
311c7871402f
4d5654124f47
477f43494674
511a0545240c
21155e377d24
2f38145c1615
6967501d1615

7f5432551c1f
4b7162251c21
181c6326574d
174471292628
2b1a25462f45
7d394d203e47
171e2f2e1d68
1a1a1b0f2819
1f1f4227663d
751e2b254129
1a7a1321155c
1a2e240e6a2d
321a34051b46
3020497a2564
7f2c481e3c21
65440b554930
291123484930

3267393c1b27
713d49271877
0b18401d0b43
1e44671f193e
231f6d531975
6f0c324e6f70
35207c391c23
211230202c65
432649344f43
191a3f187522
0f35211f1751
146922205112
4a2d7748131b
1740234d4572
3514646c3519
7b05186c4d7c
40656d464d7c

10285c1b2021
1a50522e0935
2b12653a4c67
1e15557f221a
7f1f21632d1d
2d1c1a354a6e
7f1a257c1033
3e3b411f7b15
162618275213
53504a305042
2d1640190e23
1a4a7a3f4f3e
34186f1f1911
37706a0e4d13
0e483313287f
241f315f301b
76517542301b

483f235d381c
660a1f112a75
1b0d5f183036
2472121b6020
191742571b31
101f7e21293b
2d23316d1f4e
1a25451b5237
2e337f235830
35181d232e1f
0d2e121b2c64
2732071a1a43
272370281a42
3a3c19277f5f
42161e5a3a1d
7f2c1e635427
6364184b5427

246850172e0e
342a1a581b06
271e1d7a4439
095976605451
751b7051231b
443621184a15
3c1e145f130e
3526421e4939
243f182e726c
057f6d2a721e
31201c2e171f
29631c3d3431
092351382721
1d330c38192e
187f1f4f5149
2e2c3612240d
632d5a2a240d

42464b7d131d
75620558161e
1222601b777f
241a462d3853
6320625e1a33
672744616846
341b437f1929
231417127f07
16163b7f7f09
461a1d274d6a
26282d2b197f
196272195d55
521f21061333
4e0b17227f7e
37126c273425
541e12297f30
720821637f30

1e6659237f35
2a387c6e7f26
374513236829
7f34221c6b32
7b212b685913
125222215756
207f1c387c5b
26194079255c
496916394e19
721c1036085d
371f53397b1c
4767141d745a
742b31532521
12666513454b
1526541e6022
14641455191c
56613c21191c

0d2820273b43
1f3d1a697966
4836191b5c31
7c7d0c1a4d39
5a420f50551c
60451a5e3039
277f24596d32
17281374487f
356d1f28546b
7f1b1551644e
4d1a5d3e683b
4a274e1b2072
424b333d3972
617226260d46
1f1273504e12
26501c50140f
45723026140f

75337e3b1324
3f1a475b1f35
20226a193172
201961246c7e
67234e22185a
43284725203d
3215326b123a
2e2623185b3b
2020305c7b2b
45212d311956
237d241d2c73
1d237f184753
171e107f1e33
30316a7a7b3d
7a1a6218481f
6829276f6e41
2f7f787e6e41

164e77246c58
192630513a5c
7a19671d531b
346f2f136f64
732d57447f1d
2c7a18183120
2d3a16123f49
20175c2e1979
313e12135648
45271c7a204b
7f1e4d335e24
7f4d32182975
6a5b530c7f7f
39645a351d41
1f1a29763910
1d781a3b2b14
201e231d2b14

16310f284215
501b44353262
191b34455c37
113d192f7844
351832241c20
0b3015267053
4b262351224e
5a797c1f6528
201e234a411d
454f71346934
19120f1a1a26
3350267c3a39
492b7427175a
532b25181b25
164f2b411555
301e71272118
512f23382118

302d43523f2d
7a4a711c1577
171947293420
123973245040
541a7c21147f
732b3c76316a
371272231721
33152724274c
21154423560b
60212d141319
1f3b5a2b1c4a
1f370e1a1b2d
361a5207241a
44405b5f4f42
4b2078485219
6d101e154279
49494c604279

1862761c6549
4475512e3b34
7a2f4a1a4460
373d44167f26
5a3e4d477f14
4f7a175e0a4d
182f17333d73
131d08304248
40411d271a38
1e1e207a3366
7f204a4b590d
7f416b177a74
744b57137f7c
3f7f68413c22
1616645b6613
2c7f1a2d1d11
2154223f1d11

171d5128381d
20432c471e1e
2417314a0124
1f0b446c265b
561d282a2d26
332022295754
33231a01130a
7d75490d601c
241e113c675a
0e477d38790f
1f1a5512151b
244719783224
502f5f051916
30276c38204d
164b4e152537
2e207a4c251c
1d3e382d251c

19645827607f
20305f673b32
4b7b4d21187a
3b2c5b257c4f
247e4b274b17
664f1c1f1133
4441211f3833
2e123f405e7f
6f61254c1353
1326233a2b5d
291d777d412e
4a415a205959
447f3f7f3c67
4c283816363f
15261a423e21
1c450f621f24
496a2d2b1f24

283972254871
1a29736c377f
437d401f3d2d
2b644c1a2633
6a7f120c3d18
654123180e73
31372957333f
3b0e2a444f7f
68451f656724
4c1e24372c64
451f7d764d27
5b08370a4f37
677e67094816
7a651d253121
121d166a511c
2b4c16331622
1853081d1622

7a304d4a2d2a
6d302f34225c
250d0f187d29
164341254216
1d234c372846
081f41410d49
1d31361d1f43
1c16761b645f
353c3f542b0a
48141d162764
227f4b162f58
191b35154946
1211640a171e
6d75587f3243
7d1b3a4d421a
7d15105e5e42
0a100b445e42

40635a436821
6d6e7c6f2111
171b5f1d764d
10551e1f5457
2c19354c1d7d
5126367b7a0c
2a257b41165f
2321192b5d0b
192a56507652
161e2a2f454b
1a311a2c395b
1f2c131f4d19
112834751e38
527e153d4e7d
3b1e7e4c3223
5c341a444a7f
0b57485c4a7f

132f661c061b
365f34702b04
1f1a453f1e4c
1b18467e4251
381c4f151510
14211a564e2c
6d0811651c70
3936251a2c48
153b10475362
365134193953
231b4c111c35
0d7c62452e1e
27226e3c1776
3852223d3a2c
19407d353e7d
221e2b6e1814
4f7f1d201814

4658685e4e0f
5c75677a1779
212574176c5c
1527351d063a
3c0e2d571630
452a7f26194a
321249611232
161510171e52
24637f71364a
3d17201a2734
14285b131d65
1834721a6f4e
342c7230193e
6a07484e7e4f
4b181c132a1c
79161477602d
183e6b61602d

20567519250f
29132d441533
161e5b757543
0c446255181f
4b1b4c4e161a
132e16735d39
451f15551a5e
4b234f263a62
295b1608162c
507d642a123a
1b0f60211930
261a674b2626
141b6f0f1753
101f5a11411a
1b7d29601340
122c346b230c
48295543230c

472d197f6123
7f2a62170f6e
261a51205838
142332366156
551c46362b31
2d4937245920
271e4a7f1816
0f192b1c256f
342c337f312f
2f16233c3a34
293d2724296c
2c51501a6344
4f0a6e4b2931
4d2b414b6179
302a5f613024
45440e177f33
0f7f697f7f33

22153f237246
453a1a327077
2c43151f404e
716444130a52
752f251e3813
14361e725a5c
1b6e1620735d
2a20246f212f
49491f1f0910
6c1321401d6a
2819222d7a32
384640174a15
2f20213c2a2c
5c167f2c1f0d
172e276e142e
114222521c16
16722a2f1c16

19426d2a394e
11407f6d7a5d
473d75121776
7c755c123f2c
2f35362d5b28
30371c5f5576
367b1d28705b
151725746424
587f1828384f
2d1717426226
471748387e32
377f751c4a45
49241c1c4b66
7b7f634d1f4e
0b1578745a1e
134411281e15
4a304e271e15

