7f3f24380c24
391525632e28
16323a282d64
291c642d2c4f
0c2334591b71
6a1e5b333859
231544422f50
2e270b1b5032
353b3c5a472e
682932132c38
297f1d17196a
226760183c2d
3229681b2424
2c3d555a494e
7f215f08301e
5212284c7f44
1a5168567f44

187f2d1c3b7f
374b73495e29
7f24371d1428
4b36282e674b
6a44411a7f16
187f19257427
3b442523504c
2813473a6c14
4a5d13483972
712c147f642e
7f16274a7f1e
7f1b6a146f7f
2f59172d7f56
5b162f1b1a3d
2532214d4f18
167f1d532722
282439312722

30114330171e
1d6c59283251
1e2b5e574954
1d5b2444474e
1a20682d1d28
2e2726274012
683525532418
7f7f34215a32
1e1e2e122e1c
3b647f3b4326
191d2a1b221c
2b3b257f2f48
4a281c56245b
104138154342
327f2e5c315d
19177f511b24
2c47222d1b24

495557565029
67663c571f38
1923572a686f
26644f14082d
3b2a52110d7f
561441382822
25207f561f60
231f1c314d0b
1a544d53133e
30241c2f1f55
205420332643
135550233929
142d54731306
401965574f40
652521351f26
5a1d2443347f
3340582d347f

277f1b1d717f
36485b2d2e67
7f3a3829360d
3d2066276a3e
645734647f20
1f7f26135113
2c362613556a
3e2a513f6165
3a721d333271
14282d7f2410
7f101c457f24
7f3b5d21427f
175f47757f15
6a165b1a151b
2a1c114d2320
1f7f25392f24
2730323b2f24

20505713541c
4d395b1d3b42
1422275d4b37
255130773714
3c212d481b20
0d28204f5f2d
4f181c132d0e
737f5b302624
0e0b131a2d1c
695f7f262110
151f3d360c2f
0f4a097f5906
36352005063a
26153e191342
1d4e30404255
27177f581822
603b673d1822

1d2a5829197c
384f080b3213
4e7f42293d4d
4f16442f5328
5b7f2f625221
4759306d6361
345e30704141
132e34562e65
6a18251b6756
482d2058304a
3b30407f3b24
4b12272c4b3c
417f44616d41
49453c361e19
272331283029
1c681b6b2c26
604d2f3a2c26

282a262e657f
3244402a3c07
7a7f2914470f
52710a331d16
367f4f3c6818
607837222248
2b3d30344030
271648434032
7f662b32382e
3e1d1e4f5720
521a557f6511
6a273e1d2153
4f7f110b6e1e
582119151115
17331c582726
256921281c24
574435091c24

7f67645c4a4f
6053272a190b
61264e395629
145332195238
22252b565741
364e56081862
3b2254702250
0e266e183e62
2f4c3f594053
142c27630e66
687f4a1b4b44
584e5e1d6055
0b1a36704b1d
5e6a62563b51
7f32691e3731
4f4b22685755
5a5f482a5755

542d233a0a32
441449451821
35221a1d4145
1a415e30214a
0627672d257f
311e5a394223
4f1e7f14195b
422b3e245648
2b327529284a
2d2626341625
334c2e110d4c
2d563f24403f
0811422c2f23
370d59325b33
451368435e23
78412f1d5c7f
3c623c585c7f

155e382b2323
116f46521531
180e554f443a
24506e7f4859
5725536f161b
350d2160500c
761f206f2220
316635234d5f
174826515438
366c4817344e
20235b241835
112a256c1713
483067111a50
474a49444d16
276d573b347f
29225113351d
2f5a151e351d

5c4633796021
7c632b311c5a
2f243d284d6c
1b570e27435a
0b20721a3244
4c437f360b5d
373140201c48
19213b1f1e26
47087f6b414d
43272a2e3e1d
2f2f10242354
380e3820373b
0930105f2d15
47474e533453
4d166733152d
794724085838
18566a505838

26135927472c
256a335c1d5f
111d4a7f442e
0d18717f5e25
2016715f211b
622a28156147
4c2e251b2d47
5f342c2f5560
2a391931562d
0e7f782c782e
291c182f3026
2469316e5a12
513838471d3c
410d5d1e2c20
177f11051555
153b4a451c11
2a5135241c11

4f2c0d7f4242
4d214d182706
5f2748293a2d
1f1a46322d7f
122b2964504f
486549125040
3f25525f2040
25334b2a6455
2c1d5366634e
18212b60705e
634b0c285b6d
5d2568246075
451d551d4e14
320b5b2a7a68
441d5a2c2b23
4d6b2e1d7f50
251224717f50

17660a196c78
1c2359347f41
556262265a58
7f5f3e181621
6b3c235b6d10
1f762749655f
0e7f20257f44
2a234e7f363f
493020467162
201124731c1e
671e1c4f7f25
58244120667f
58453d106928
3d622b052a12
152e2f0a5f3b
147f2721261a
191b5e41261a

282545266870
4122396a7f5b
6c5f651a6d5c
7f1b2b311123
505848056b1e
10701e50210e
2c7f27547f5c
2923527f4960
604a30212370
57202b62551b
62232b527f2b
5f41351d2f4c
744a4b6b5e60
2c4c2b161736
15191c1c2444
1b4c1d6f2b13
5a1239322b13

7f1b663c3c2e
5b0660492a5c
232b27306440
251357313554
0d2d4e2c1d62
5228553d411a
2815452d253f
21175b214727
304e3e2b1f06
073238304946
297f592e3554
191d271e3746
3b204b052805
1a0e15765846
7f211a572b1d
643129286e4d
3e5223626e4d

0e7f59123c7f
123a4d4e571a
7f1e3e195d0f
4b77341f5052
664b3e477f20
5b7f11476850
2135233d3f49
22225b3e0f2d
5129184c066c
3c2b207f7429
7f2369497f3f
7f484e27497f
364a34407f70
3d713b44261c
263e384a3024
217f284d2420
100a280f2420

1e403d2d3a1c
306052092f14
212b16533a22
1d1d3e454a29
181b34781930
63272320404a
603b17673b4e
7f7f16263205
1b2c2423323e
4d707f28272d
1b2c1a122c23
2a2e347f6150
31151929272a
2f520e245c2d
266d3351376e
26277f211b15
252d691c1b15

5651295a1c27
744d1d14185a
1d2f0d193043
13083a181c4f
603b0d43087f
78195019370c
37247f671e3e
191f52272e39
2a5342553c55
400f202f1442
1d5410352c46
0e7419251426
17405a292554
3f371f2f414a
5a12702b1321
72231b46407f
16535739407f

1b7f2b26447f
0b10435c3c3b
7f4070312632
345b3d284818
3a3a4f107f13
1d7f3d16297f
2034266e6845
1e263b4d124d
4e7d3353424e
2b24307f5e57
7f211c437f2a
7f2f63114f7f
445f0c717f66
6020264c3438
251e3c3a331c
277f1a3c2613
36424f212613

322d121e1e1c
2d5b335c2252
2c2207604843
1d4c2e786640
44106748252a
341e28225b0a
2e1a21142833
7f7f35145621
193a1e052517
6c687f240a20
2f252b192e11
1911587f0713
232b131b161c
0a0452192524
1970291d4549
093d7f562a1b
5a5d35392a1b

0f3c55205072
523756674428
417f372f6312
442437237c21
687f4f4a350c
2d3131380c0e
275134433368
482a3c420e3a
60402f410a16
692c21424747
36277f7f252e
55214324245b
6e7f60303919
4d083c111c2e
1529266d3a1d
1f43174e0d22
3e1f37350d22

3542442b587f
1b2f226e4a04
527f1a224316
425d23205016
2a7f43113b0f
06532a184348
30401308433d
281e5b470d3d
6c5c241b2b28
222332422c1a
4d1d457f482a
4b285d266c4e
447f5e394e2d
55212f452f2a
1d441e604230
1d4a1a3d242a
183a4621242a

7f18585e311f
5d3f24201615
2c3a3b2d232a
1a170e280222
111a1753263c
4d2c60221460
3730301d2c56
0a3550163714
3b5c624f4e57
542937376b65
1e7f1e26105e
145d35272a32
212f0d271653
37460b573a4f
7f20325c1d1b
6c1d27216a45
4e3b50406a45

5a0c2b552d21
55643a433820
262117232c64
221a58303b1a
351a4813217f
311c41506018
3f4b7f6b1e54
26236b28594d
3c4f76371b5d
68302b1c3a41
0c5216252063
1139351a3704
20255a531f58
4d6753435d3e
56282e2f412d
77331753657f
0c5a683f657f

231c27281332
172e2c632224
23165e62211a
322c4d7f182a
35221a582c2e
54213352153c
7f17186f2d5b
37691a1b3405
344a163f2035
6f694d3e6e56
33250f1b1a36
274b1f5b6247
4e33546e243d
3c5e1a45482b
1650342d417f
1428551c3722
1638302f3722

463b1f7e3e28
512612331043
151b5a23403a
185a43201957
281c4148233d
3f157f1e424f
132c56361f13
2b2d171b2f3c
2c197f512116
52141c225315
192712231f77
294e46265a3c
451d5f532642
23256357647f
5814202b261c
7f1e2f325d2c
0e48707f5d2c

2e626722434d
210b155e1129
601f3e7f644c
12605a70245e
19134b595829
2a5f33453440
53270f132a08
64310d232206
282129472b5a
1b7f76752039
67195719652b
6e282d70297f
442152525c53
084f1a45184a
287f08543460
2970561f1d18
523b631e1d18

4f52217f4d27
652e2517124b
3f2208172251
220d6628277f
392135433b3e
365f4a0b6620
2023593b120d
2a1a6024191d
2e495152226d
432530403c10
454d2f2d3e7b
3b4e59251374
3f1612333a41
134e51254768
3d2e2b330722
314c214c7f41
4c541f5b7f41

184530224d60
3a2668607f1a
4960272e182e
7f72391d2c41
34471d616510
34431a2c6a11
3c7f254b7f2f
212d147f5156
623c271f3a32
23122330130b
4224703a7f31
4c3130314f2f
5a465f332b29
5c6d3f361f3d
292e6c514135
2c522b68241f
335d0d27241f

1f651b236c59
2574566d7f25
54647229580f
7f474b363242
6557371c4c34
2e4e15716b6f
307f31407f26
2923547f2d28
3a4a1c455d1d
3f26323b392d
401e5f6a7f2a
4056382b6145
72492b324140
603f47291637
1b1a6850492f
1a54195a2623
5d5b52292623

7f266a374f5b
284453410f42
572417225e45
252d141f4a6d
59256914496a
375265546038
3e254d2d2c4c
3226591c6a64
3b4f3f556c4d
1428186b2e62
607f1820395a
60404722365b
2821570c5153
2e74145f323f
7f2127470825
6364204c6d60
492f71526d60

187321156b7f
512f22515a1a
7f2751223340
34585b266345
2b4a56427f19
457f202d3e63
303617575125
412633414928
492321214731
393213737f2c
7f2d534b7330
7f41541e5273
405426167f74
5a2d300d261a
223927793412
2c7f1d5f2418
5e323f502418

1f2a4e262733
205b45512b48
3433545f4315
211d30541f14
292e602d3e21
3c322c531b43
743221242128
7f7f1b186340
1d252e140d16
41677f312e0f
581124293728
4f453e7f4e40
2919432d3a4a
232a1f164c34
276b3a542068
212a7f541123
456647141123

4b41605a281e
6a5d59352b13
0f2408306c43
20344218104b
203960410f7f
32fe5f431c12
25227f1f211b
29284b281d05
3040521d300c
4c20350d2f27
0658422a2e30
19492e285433
13236a661427
2039655e3051
602d34594d29
70041c47367f
2d524d59367f

147f4636467f
2e7369284353
7f433f311135
386c4125422e
5956383f7f1d
0d7f2e363320
2f3d28495441
2f21294f102f
445a324f1d1b
601e267f5116
7f1c4c447f30
7f366c1f3f7f
124b272d7f2c
5c500e434f2d
191b225f371b
287f2b602f18
4641222a2f18

2e52422b0e11
1d5e0e3a251e
1f1451635457
1d5e497b1635
2e25522e2c18
5921331b531c
3b15223e2433
7f7f65280e41
173921342e3d
28597f212556
15252b133a27
1b33567f1152
0f101238190d
55064636191a
375330381759
2a337f142e22
1025233e2e22

217c0a39257d
3a1717483e2e
4a7f2728174e
53231420385c
327f114b5014
3a55320d2a35
28721a223740
2f2e313f0b10
7f6033223959
19283656483e
3f252c7f3346
58160e334a2d
717f4b185915
183163413e1a
14364a355a23
243c205b2c18
4958251c2c18

2a384124267f
363a1c695428
417f42266b26
4f325b1b3c48
437f12473611
4224374d5a2d
444f21564d68
4b1d6a4d363e
7f5f22245624
6225292d604b
2e226f7f2c2d
2c3f691d513a
4c7f1a355b4b
671a2e2e0b17
163862283438
2e25144f1f30
380327481f30

7f316253591d
3245225c353f
331968271852
181b491e1928
2422691c2c4f
4d2d6453690b
332c4e67216f
0c281916203a
221c4b2a1e1f
52292b23155a
217f46303b5e
3113601c5535
502326342272
473d485b445c
7f3a3b3c4623
67361e235644
242e37325644

45645f344730
4028163e1d4e
382952173b35
2466292e0166
5f263a61337f
4b3f490b4262
2b267f092c52
3120632c423d
3a505f545121
131624567128
3b4549184c49
4958241c6135
212c627a360a
35672c201021
3d1c6c223125
5c331d23507f
0907414d507f

173d1f2a1f1b
2c4c2f0c211d
132643620e5f
25141b7f115d
1a294e671331
37161d471f5f
7f312920183b
4a513a271f09
240a1f166814
637960211b6b
1e30101e222d
0e670b6b5421
24336f151b34
486b220f2c44
1c7320202c7f
1c22450b2d1e
774f54392d1e

5f47577f3818
663535652a41
35222d1c441e
2344251f3b5d
161430312f38
1a327f416c05
24265e1b2a3e
342a3e1d412c
0f427f69652c
361121475d4b
3e36191e2068
283100220f3b
3632262b2512
165145595872
620d52371f27
7f3d271d6741
4a612c6b6741

43304c203829
2d1b2819202e
3817367f410e
1b5a1d7f2922
602449762b25
3f2f3a34604a
2a2e1e122134
5f4c6b233e5b
0c39243a4807
617f6d332634
3c2067332a2f
2b402d6b5b1f
26283870261b
461a1638131b
237f146a455e
2b25572b1814
614e42241814

4c27417f2233
4c341e68255b
1e1d192a511e
200f40383c4a
44222b1a2748
6331496e344b
152d59751e48
28230123372b
392851664d48
10263b192262
434c39252675
2047111c1c39
652a445f2a30
331a65586975
4b29566f0824
632c180c7f45
373e25747f45

26653b304156
302d6c117f73
4d580c385616
7f4d40171334
673516616c0a
334938627341
2c7f2a637f4c
1b11387f4213
3b6b2a2e4727
3c221230640f
472b5b527f21
47664a1d2454
6a57476b4e33
6d1f1e483f1f
2d3734676942
20522472183f
144c4237183f

1f563b1f2373
14634e717f48
665a6d221a3d
7f1e602f6543
6a5125426f20
1e691170584f
2f7f37577f65
35264d7f6e0d
484d2315173a
1e24196c424f
641d543e7f2e
666717263478
66403170630f
45553d3a2739
0f210d2b3d2b
1e5920361f28
405c69211f28

7f3e53383425
392217421a33
1c3202243760
214346223a29
601f12541c7b
3c24730b4729
1a1845551929
1e236e1b5905
16353258605e
2328283a7623
307f110b2c70
37570a1c5833
44173f26331f
425f197f6b6a
7f314a201a36
533a243f7c51
091352737c51

1c7513226a75
27236b64566c
732b6e1c6959
507a521d461e
2239592a7313
23751b4f2732
222d25174e56
1d1910443532
4055133f6367
72272475473d
751966517518
752b33174775
60446a3b7547
364a4715452f
20335f4a7f21
2d7320162618
5238673c2618

1909192f2923
3b2422112d2c
212455550530
213a36496316
0c2b622e1633
3731291a7a60
74301e0a2142
7f7f23293421
1c392a432b12
586e7f15634f
3d2344212211
28370f7f4309
2c1a163d202b
452359102e25
13793d681356
2a117f18141c
2c281c1e141c

43412249303d
384341411b27
2b244c2d615e
2c0f0c273847
25251317257f
383c37066045
37147f391c45
291825240d14
4a2a5b6a590e
262d172d3a37
345a522f3646
286226204721
2d1e370f3514
235c615b3242
462f1f14262f
63371c273d7f
4e2a424a3d7f

1c7f082e487f
283b307a3636
7f3470200d4e
4c694329443a
1d425b3b7f1c
297f2c0e373c
3d3d3610556e
3b1e603e5249
4b7a1850207d
1a1e2c7f6064
7f27214e7f1e
7f132620337f
265620357f35
0a664d364830
241130125133
147f22351e1a
533f2c431e1a

26341b1f5c2f
272a675d2919
34172f735d25
2a37427f0a26
2f2d56703b1e
404d1b214f61
5f1519601d28
7f7f19205d6a
1f4e15132156
61787f530d47
3a26211c341e
4250357f233d
49411a0e2e35
58654544394b
26792f625140
2f4e7f1b1921
38571d461921

165149295e79
4f435e651f44
437f5c1b6a0f
46631d257559
127f183c3f13
2f482a58635f
31622b613843
262b364c674d
7f321e263c6c
3c1c2432110e
2e1e7d7f3524
31442f26473d
237465384644
1b65502e561c
201d3b431828
184c1e352f20
392032452f20

2a5e1b2b5d69
371f3d214b6f
437f6a1a3f47
3e7a0c1f1714
1e7f36393f10
4e4923522734
365818534a50
3b2418506711
7b5d36254e20
69203333395d
39262f7f3724
3e173f1c6f3c
646b0a174872
1c772747254b
112237482f2c
34271f212b2e
4b5313112b2e

7f31725d423f
364907232f54
42242a211d4a
173723272552
1825592f343f
38516210160a
39373217190d
1e213d1a2a58
373a432a2639
0d2f18486463
457f151d3b57
3b5c5f1f3950
481c1f583e16
292d407f6a4a
7f3554342e37
783019146655
58256c586655

47614a445229
6e294b24363f
19281b1e1467
254e592a4438
4f1b38121b7f
381e41531f5a
2a487f221e43
2c393c40452a
1e3a724a315e
6a2d3d161816
184d31114d58
1f261e204a21
1d1b66363619
51522c391938
3c1f14313821
65192d38567f
2b326529567f

175c171f1735
23605119276f
212864724e58
263c647f3523
2f2d674a1c2d
612f283b682e
7f331c12151c
2e562a29354b
37271d281c60
1f7f5d2c4a23
1e2920262323
202639656023
213c291d254d
0b4c4c0d262a
20691a21547f
2c37461e2b25
204047222b25

51611e60191d
5d1054211e6c
1b2235356460
2a4d4f1c4030
462b6f3c1d36
44257f484a1a
290f4e741b1d
3628121c3135
40137f692956
322d2120702b
3e3b61301f6c
301e64263c21
492c161b211d
59583e50786c
502120681c1d
7f2122235845
2c6d66735845

3b4c46111f20
105b4e551b1b
1a1c107f233e
164d666a1d36
221c4b5c191b
3d172a4e1627
25252322272d
4b3634225e22
1e0d2f383b2d
497f753f1d3c
13243b1c3318
3919355e2324
4627284a2b15
3d4261264e15
227f1b160759
282d5d152219
454e5d232219

510a3d773729
66220317155e
2a3120196554
22430b373f67
46185c292b4d
372932517217
1d2a57211746
2a29482e573b
1b5052781349
5c2c38306753
3046212b2364
286965240645
5b193c5b232a
1f333f283e50
53257b6d2022
394327387f4f
3c4620757f4f

1c1038172860
2f65640d7f58
4f480d254d0f
7f68621e4834
5b5d471f6715
1e622b6e6e44
2f7f1b577f44
2e230b7f2a3e
455f1f525632
1c1f1a4c2f18
381f143f7436
4e1235284a44
7647556b2a17
61523649191a
142d3210672d
1c482816192c
1d065213192c

22481e224a69
526752517f58
4f5130292a5c
7f271431435e
4a4370255e29
61422f2b1f6e
437f38317f26
34230e7f195b
4b2b341f5d47
201f23661635
4f1b20637f24
3f6055265251
683f1c725b73
555a33345c36
1b1d24367b26
2d3c22493423
6c225c1f3423

7f444e3e2432
41191c1f3310
222641284320
261463375e2e
602f355b2370
411d642a584f
2918407b293a
31286020656b
1a2d3c4e6f5d
693927332545
267f2b212d5f
321a4c221d47
353b35041f5f
4e3b485c6c3a
7f1c5a483b29
671437137f4d
1735735a7f4d

137946297e77
2d206433434b
77161720161a
4d1e22247025
163f5c317723
1777204b1633
1c332356526a
1a1b5d3a1822
357d19125125
163b18794f68
77255a40791e
771e0b207379
50620a0b7729
55283e2d4c3c
1a4521307f16
1a771a3f1e20
4a37433e1e20

313f1a2b2118
2429225b2f10
16251665561a
245b66455553
333856512b2b
52231b240735
521f103e2646
7f7f171f625f
173c20211751
0d667821435d
2128392e351e
1a61377f134b
172064641a4e
233f1c362322
1b7e4a46455d
182a7f0a281b
67414e2c281b

53732d683e1e
495906642d15
2b1450342b3c
28265423111c
001f0b33287f
6126450c0f48
391a7f5a1c2a
2f1c6f226a3f
1f5e4d346361
6c2727233c5c
305209163a64
335e3b243423
13221b55245d
260e434e5469
622b0b0e2323
5832240a2e7f
48061c5d2e7f

157835346978
426a314b3e77
75446d2b3167
3926441c5f2c
3a4c30577516
35782646236a
3f241a125363
22204a3d285b
572627191b28
432a3478405d
7824444a7819
78345f133b78
285255747862
1b162821284e
1c1f1b186f20
2d7524151815
4a3e46361815

1c43371a3422
4023375b401d
31130d56340d
261f2a665f42
362236502f1a
45171f39392e
3e14131b1456
7f7f3b224743
2e491c195751
626b7f390c14
2b2d28282c2d
2e2a1e7f2a5c
3514113d1a10
3d6f36301a46
22450d0d5851
1a2a7f471412
502162481412

1d5c3a2e377f
196b6f613b01
487f0d354b4d
5b332a274e48
037f67524015
282e344c3773
506035093f32
311937422235
7f5833340d63
4d2b2f524a1d
3f2c707f3d36
521d4c2e4339
237f6511483b
4109513d3839
253a3a34522d
2b3d134a1e1f
7465491d1e1f

2a3a19374575
3b49472d5118
5a7f11213750
36375b226041
317f0a3c4e1c
3c3b1c525a3e
2b54144b4675
242825571476
7d5c21213343
642d295c134e
611d447f5423
4b2c57296179
3d7d2c386267
672a2f36512f
21306c59722e
2e4d22412227
37564b222227

7f1c52705919
5e36624e2507
162e56325b30
111d43266031
692213141643
143b4d634458
4d242f5c184e
1a1966192d71
4356532c2b3e
2e22222c0a26
2b7f4a22074c
2d4b411a2341
142e24671f21
5a4745585236
7f2365154d2c
521f19435b4c
265f652f5b4c

36153b3f0d38
790f0f450e58
182c331f475f
256336253960
66120c2f197f
5929493f3535
1b207f3c1150
3c2141271c1f
4d216a58562e
0a23233b4944
29353b311c3c
2a634a232825
09312921283e
45472c184965
371e3c281c26
50212a5a577f
08333133577f

1a565c16135a
28700b2c231f
5f2d40575b24
1e05207f1825
3229661e6d2c
34771c35364f
7f2b1e0a184a
53514f263167
335720524536
6f70627c6c55
672d12275113
59192b58565e
462677385a27
3c110c413845
1b5b1b4f117f
255d52562a18
673a252d2a18

4b214b7f1c47
4b0635121f37
493041263e6f
2b313f2f2c35
1a1a41684c44
1e487f511621
22224722321f
28313024311d
23097f255767
161d26341c66
3f3217113c73
3e443e1d0842
1330463b400d
2960212c3f7e
591d1322441b
7c2a2a355a3d
430c65765a3d

3a2c41252818
3e2d34112417
2318377f111c
0b44217f6233
5d186d4a2025
3f29323e2764
292224451c3a
5f391b224b4d
324b334f222d
517f7b274a1f
291753331820
2a126e69142e
1c1a5b48230e
174b452b454f
1b7f2f25235c
3b2d505e271d
783a3b1e271d

5358297f3320
443e19321d18
1a1e4d2f4036
213d133b4b7f
2528285f2841
1f265332630d
272a645c1d14
271633154b17
361d5b476209
2d2e32250f33
285a3c26117f
2918471e440a
0e1528341431
303825522e79
4f2d4d37171f
6229224f7f3a
28173b4f7f3a

1d4550233e5a
383d73487f6e
5c5b422b1c43
7f3b34202b1c
2e3c0d665e11
3a6429391a4c
457f27397f25
41240a7f5d52
335025266168
4516165b662b
492361407a30
6022092c3d45
4a535c333c5f
5a3c20480a45
1c392f6b6731
11472937212b
1b092140212b

241c3f1d494b
3a4c44667f5b
546a31364464
7f3c28272d33
314e68504a1c
6054272a1b27
477f256e7f59
3727277f581c
365823455b45
672823603b19
4a2539417b1b
41434b184d3a
60602366453b
31331030171c
1d2c35293123
2b3f1f251c1c
251171111c1c

7f2b6438151d
4e5f0a2c341c
27232f272816
185632294951
0c3435201a6f
4b3257475816
27144d0a2a3b
2e1c3724106c
18613348612f
3c272227205d
327f50261c55
26472c2c4d46
5e213a3f2011
27306470413a
7f1a411d5133
6023303e6643
164810426643

117f53374a7f
266e281f533f
7f1e601c4d23
40530a1c572a
383c600f7f2d
3d7f20395231
32402f574d53
212c43351042
2d511c566423
1e27297f083e
7f1e362f7f25
7f6566226f7f
69555d377f4a
463a532a4143
252b3e214d1d
217f2d591e26
5b4656391e26

272218392139
4e321d392734
401d366d3340
33302f443d0a
352e5f1e2c2c
17352e32515c
7a2c16462f56
7f7f3e20383f
42182b0a2835
6b717b530f47
501f241a2d41
323a427f1f41
123225542c65
051c43353014
1f72191d3669
343c7f221814
1d3b2e311814

374e454b291c
355b061a1e5b
15223c313153
1c323d270917
1b1d15621d7f
3d3145331146
461e7f532330
312650136b48
2e1d470d5b64
441c16164850
1c5629182541
16626a272549
1d235c562a3a
32512a3e6155
572a0e202d2a
6e0b2c5c357f
693e384f357f

1e7f463c4d7f
0f2d31613a67
7f412d2c1119
44323d162a43
2a4c214c7f0a
3c7f20171074
40302a1e597a
1c1f4e395b4b
66232b560f6a
2627297f5542
7f1752577f2c
7f4d50273e7f
4a5018157f62
1b2b1d4b5730
1e276c5a5416
2a7f1f6f0e14
5e11214c0e14

1e342a2e4027
2b0b66162841
2a21265f2e34
2545277f235e
202c11342424
201a35401b3e
2f10125b1a07
7f7f6321611f
101e215a3548
3a577f202141
3725441a1732
182b3a7f204c
373d1a1a121c
565b2122310d
25634a061366
2d177f37251e
601c2b2f251e

26545c28417f
3c2e482f430e
6f7f60224221
384b1732603e
0c7f3a4b7d16
1d4127545330
5154313f3253
2e1d72422621
7f51223e2955
422135523536
70226a7f5c29
7e321419617f
3d7f3754736c
1c3c15392846
261e510f4b3a
1d7f12601b25
35222c2b1b25

2b4b1c11486b
1f286f2c4a1c
4a7f23223c05
313735147310
3c7f0b232f21
443f24743935
19512a6c4855
251d0a505f64
5a612a1b5660
36222d35380c
3928477f3921
3e05531b293f
527f4630572c
413f013b3d1c
122545135f43
1c2c19681737
104e103f1737

7f3f64614d3c
6260215b205d
3f3108326335
1a4819283e08
142c18154058
39386f3a250d
15243d342435
252469152920
4b3f4f43150a
3d2a20346f78
3c7f3e32295c
33582d1b092e
62204c43296a
5908606b2f20
7f3c2a1b3f29
704a2511624c
13221143624c

524d512e5637
442c604c2e3f
323a0e2c126c
2c1b252c3e10
1a26275b247f
573553166b30
20407f33235c
2e1c102a513d
51446d2d3f21
612a2620290e
254d5b35383e
207827122756
2e25446f275c
4e6e2319495a
401e2e33121e
4a2a2a2e527f
13384f2d527f

1a5d1a360d22
0b1d27302859
331a1f6a274a
3418507f2655
591f500e372d
122e255c230a
7f331a121714
545d4a201f4b
0c3c13512865
716c5e3f454a
2620420a3418
274e216f1138
2b2a666d2f3c
152f083a331b
1c55004e3c7f
29384a602a1f
1d4f29242a1f

522d32672623
4f17454f3147
291b17214d64
383604383158
44162a561d4a
45277f40012d
4133570e3138
172f43310d23
1c407f24311e
1a1c26206168
1f3c22272e64
204329143c37
4e1703142e14
323b242e586f
58173b103d24
771c270e5648
370a276f5648

2b02310d181c
2b5d545f2d52
251e657f223b
180d4273363a
541f48310c32
24183454502f
4a2817581d55
5f3053255e64
2a4526520916
0b7f7f346b24
2c22473f1639
252742681733
432b6915142c
3663144e470e
2b7f23472465
1f18494b2212
7e196f502212

53412c7f1c54
5d3a1b18264d
2a28682b2d39
1c1d37281e79
2b2f4e65413f
6f3646522911
2d3b57202242
2b1c53263a06
24384a72203d
57343f33435d
353d4d2a5e79
2b493e205e61
4e2e58213a11
116d4d4c1947
512611332d25
404530247f3c
4c124e767f3c

175c42376751
41754e1e7f58
564626294525
7f4d68182d4c
4f453f14660b
4d5e23396367
317f14657f17
20204f7f374a
30322f562262
1c28263c1936
4124184a7f38
703553294a42
4b293976483d
1d20541b5c35
232f68195433
27412f6a2821
1e2d392a2821

203c26203573
176534307f64
5f6164242354
7f185d200e4a
25631f4e771e
38651c460a23
357f21417f19
2423477f1250
523923390a10
3b1e22633432
682264667f1f
5d13091d2158
734a1b2f6236
294521234240
1e1a28464933
187318651f33
41291b0e1f33

7f2b47393f34
56290957250c
211e40346b6b
203a64270c3f
222423192762
3214644f1548
2f20482b1b0f
201f14182845
374a4a356447
5c2f35202c21
3b7f49283746
19716d20162d
2d2e61442f2b
5a31397f6547
7f2a291b0d23
582f2c077c49
2a4657477c49

0c7f43195e7f
293e68286020
7f205f223513
3a6e0d2d4f3a
4e3b242a7f26
137f1c11543d
25301d23514d
272f3546242b
52412226415f
64301b7f093a
7f1f2f507f2d
7f1e0d19297f
3d66216b7f5c
4816151c3621
182c5c3f7227
177f24432926
3f592a162926

1f2a0e294c1a
424c54603e0a
172e4347062f
17292e435f52
261b1f661b30
312816562073
7c1f1724221d
797f6b283404
24142a57554c
2a687f223d26
3620361a1534
242a027f1612
1821234f1e1a
5008573c2c32
226936391e75
2b347f17181e
52545924181e

362313684743
66091f1e185c
2d2868236a46
194a67264f17
293a1f0a247f
672843504250
1b287f53181b
2a1b4b295f34
523f57684421
23111d287128
305f05273e50
30344c2a433e
221e265f3164
1f224168236b
692d1e654116
792a2505397f
233b6b52397f

3a64242a5362
1546233b436a
62456a3c5706
3b725d2b6e24
1b5825426219
17621c145f0c
3d382f286049
2e2c0842445b
3a3b233f071c
5c332a646353
622a18426426
623d31323964
3f5b5c5b6258
2e1c1e484414
39243d43271f
2d622d581f21
152d32311f21

242128272819
1d0b62652e38
2221146b4027
223f297f3057
2c2628182226
173f2e25754f
381720381f40
7f7f2227533f
0f3a2251262d
12717f194c36
231f0d0f332d
2433637f532d
1d1661121764
325b63365116
2066582b0a4e
32377f222c20
3d363b422c20

19431423666d
26456d2b4850
3a7f25244612
534d1f1c5d54
587f6a664b13
13391a1d5055
1f3e364c4147
2f24534f703f
725415171833
0627303b2047
31166b7f3b32
424722204427
7e7f4334484e
4c714f111f47
1c1e35402c1d
295c21191919
616065281919

2424592a687f
346f4a31691c
587f5a2b722c
3e290629350a
157f13064516
195133743f3a
2f4e264d3959
2014635c5054
794239491018
70302d55085e
3c247f7f511d
4c1e64242950
5d7f30255f31
552c69294c47
221e182b5620
1a48233c182d
16203615182d

7f56304f1e28
6a4c01550e16
3134212c413b
186520310b45
3f260c1b293f
61205f441f39
2f16300b1f3f
271d6a276768
0d3f6d593c3a
082711341c79
347f582d2848
356d54263e22
0f1b104b384c
3533337d2f53
7f3651374620
6c431a4b655f
29425473655f

4c5e40510b13
6829621a2622
2b24321f1a6b
3a3b3729462f
4a1a710e267f
5b2f48616259
1b2c7f56123b
2b2e451d2232
0e456f1b173f
691e253f3842
2545541e224c
324b0d2a3c54
301b320b2746
536058344a2c
3f235f433a23
6f452f314c7f
38463b2a4c7f

11215b30253e
3f403f0b1c2f
3b233b74561f
2e0e437f2147
681a21273733
3b4027192510
7f2e27351c06
51532e1b4c21
142a25252f59
3d705645303e
3f244a2d3b28
462f10621651
361e324e295d
272a51261d1d
1f605f510b7f
33424464281b
3162644a281b

527f4e7f2e1d
636742381231
2314631e1966
2d4d10240628
4025380e273b
23227f5a5e20
3c1d4b543015
2e2e0d1c5b55
38417f473561
4525201e5228
1e3a4c38194a
2b1721313c40
4b270a2c1f46
533658487749
5c1b061f0a1a
6016292f604a
2a135f7f604a

441752245f22
384966642d2a
22304c7f5f64
10275f7d2166
691c2f352026
50292b385958
302020172d26
523835254361
402d1d3b6856
217f7f383037
311837112c3a
2833686b6527
44233d641c0a
33604e412729
237f381d5a57
382a51543124
3f0b2d513124

4f4c5b7f2f3e
642c49282671
45283a275d55
196a5b28507f
222816624842
6d4b4c22324f
341456771719
29212f1c3a46
3b5458424910
3d1b2b554b28
3e4c32343d7f
4d4b1b255f68
22253d4b3b1c
0a29353b6e5f
49282b27242a
5b33265a7f40
494a3d4e7f40

1a315b316551
4d5b36207e68
52544c376d48
7f4e41142f50
54486a3c5f10
5e5c2c5e4a41
177f3b367f64
1f2a307f465d
324336624842
64342a473933
53202b3a723b
5e4d4b204e50
6e2c666a4a5a
3e1d20172d2e
1a3b49737441
225c2b6a322a
2244351c322a

275a1b135245
205b60127f3e
415d5e3a0f3d
7f4822346521
3f5036404433
2928297f7345
327f23277f3d
0e1a3d7f0f5c
72662a1d1138
2219252d564a
3e1e26467f35
3f066c1c3250
475c35634929
4c525f482422
181a5757412b
2d4a165f292c
2a340c34292c

7f2e5d3c2723
1c2c1b193435
1a2c40335a4d
230666211761
471d472f2364
2d2e65153b0f
431750562259
1e29131b5d29
3340445a3a5a
0f322e1b0d73
2d7f4f2d2042
1f270b215237
1d273159245b
1a24695b3734
7f1e5c0a322a
5e3b25086552
140b0d6e6552

1b7f441e4a7f
32236f4e6a20
7f1a211b242d
462d0e2b1b50
30580f5f7f1e
457f1d1c5817
1539310d5060
2d261f3f132b
35741b501f26
1c331d7f5729
7f194d4c7f25
7f161d1a517f
3c5e19217f61
601547414428
273247104f1b
147f2a492216
32604d4d2216

222a35332f2a
195a32573019
1d2e0b5a4f50
2b0f573b6533
302c6e1c0f21
492f303b176f
59341859222e
7f7f122a4558
3d452f341335
1a5a7f154e03
1e1d460b293c
36504a7f3e19
48094f732b6f
567133385046
1e6955455050
2e227f661f22
554f622c1f22

460c6c5d2120
73313234285e
17284a25402b
221d2b211c37
09372654157f
681c3f67070c
1b277f1d200e
26243a35390c
1a0e534b2047
0a132f2f576b
165b253c3451
2626201b2f2a
192e18061640
3d5c454a593a
672030305e29
702c2850487f
5647332e487f

276d532c577f
2f322c424258
7f32481e494c
493237205c0f
4b375a607f0b
2f7f1c631772
3c3730754c7f
342f0f50143c
3d661f5d5d48
4023316d1c45
7f1e41386d17
7f282d17436d
4d5d585d7f58
603808180a2b
21102876731d
267f241f372c
3269363a372c

304a211d0859
262d34372b5f
3f1d1760251a
285e427f5a24
562d59424223
633d200b651c
33191d2f2b3d
7f7f4e131c23
274423380d08
18637f472e53
302028252e2b
3855607f5f73
1e3c0f46313d
1124072f523a
285a1b364249
203a7f28291e
32344d4a291e

207f2f205e7f
192c472a5347
7f7f3b296067
452c111a2e3e
3b7f64607f10
497f201d2e15
3f5518363c31
322469521b3b
7f5a2a24344a
1125227f692a
7f2d757f7f2a
7f1011170c7f
5d7b3f0e7f56
4b1a6036501d
19286a372327
217f195f151b
15206933151b

2e4950133477
164a435d503e
727f6b16263e
371c561a5e20
367f29365022
2e512b37594c
2144172d3a1e
3122215f0e24
73222b1e5154
102528604c28
4e185b7f4a24
75112c1d3177
6e7e4f487242
652c2a521431
153070522929
217719131c26
512e383b1c26

7f0f494e1e3d
59220e1d2468
4528612c6e23
1b293f2a4c1c
690e19274c45
42585f364739
3a2b3816293a
1432671c0d0e
2a21513e5548
3b2623303322
4d7f26393a42
46494815202f
4510530b3836
626025756347
7f4061553a26
55311b285f4e
0e0e0b475f4e

3c5540513c22
693f50361f49
261e343f5d4a
20363c1d4b42
48244c112d7f
73285a414205
29397f15212f
39340734495d
101475521f54
222a393c322b
204841142a49
162924251b48
152266272c0b
1c1255645d3e
47216c683b28
6e262e42517f
3d39413b517f

1e28411e2a2a
105751273558
25125a55334b
3458407f5749
621f3f1d2c32
4e1b262b3027
7f1a1e2b1a09
4c4d331d354e
481321285059
39725a2e1878
222863362037
2f1e3b7a5c56
182b4a261f40
4938495d364a
2e561627227f
201745331f19
50242a411f19

5a3d41705518
3b3c622f2c29
2f1846281033
2846142a4737
3e1a213b284c
453a7f501d3f
2d2842521d27
1d363f202532
303f7f421768
541e15302153
204335232d75
2f2c59203332
2b1309281f41
245f552d3868
6d20423e4b2d
662928096334
1241244d6334

2a7d51141f48
0a4f280d2035
6526267f374d
1c2e317f5845
5a223a68563b
405d25531f51
30221732250a
4d37352b575a
3f192356522b
3f7f6d523116
681b371f4e26
590f384e3b52
192b3e1a4f0d
5f2a52380406
187f60550b5f
247151281c15
4b2c0a361c15

4c5b5f7f082d
600f091d1168
262405281c5b
2a5d3d2f2d4d
36271734304e
3b2d4a1d605c
35185c2e1c23
382127243d24
3f19533a442a
342035271b2a
2a41481e1a7f
264921251a23
44163f202450
230c4e3c3a7c
442e623e4642
543e332d7f2a
1d6a365f7f2a

16515d2f4950
3c5118307f2e
5e51182e181a
7f6a44131e35
4d2d0b355214
1f5e1d7f3372
317f162b7f50
2723777f6531
3e41302d4832
60221c443d4d
40231b337f25
5846341f3f48
46451e4d3316
4d524c16530f
1f2d5c64233a
245e2a112a28
6a3e5d302a28

263f25245c5a
3d2a232f7f1d
65642434495a
7f23462d300f
505e2b1f622e
274c20463558
2c7f24407f66
1b32127f0d10
6a5a1b1e234a
372535523415
4b1e445e7f21
476d14301e40
3d5a1f2f6431
30201e0b393c
202426244929
24532d393621
4f034e303621

7f4e2c411777
313e192b284c
68220d347355
222a3c235940
722754646768
6e7f66484273
4d133f44213f
37250521492e
2b4f3e67383b
0c3f36644467
6b7f1f337a61
565111273868
663612177618
611e3c755d49
7f302b063f2c
4e6c2a1f744e
100a385a744e

1c61541c1e69
1057356e4d4a
5d244b1f390d
584940263b15
0b4e13115d24
3e5d1239655f
24372a384a51
4928283c3c4d
595927455e3a
433b1e696f2b
5d19353d6919
69383b1e2269
5e523634692b
3a36483c092e
262e48766c12
226922392a23
300e33252a23

220a1e244a1d
14195e2c2c08
1f302b685e08
212064465325
15292f14142e
360f292d2838
482e122a223f
7f7f632a610f
3b1520182c18
41697f2d6d36
1c2b25173e24
2006167f4146
3024280d240f
2d581d390e41
217f0a2a4073
290d7f11211a
255b0f49211a

4c38714b4f20
7e120f101442
1e1a1d292b60
1c2365151747
47365b56207f
27334a0f3c64
322a7f1e0e53
2d196d1b3a3e
204354352612
481f16310d3b
205a53390e43
1c376723560d
4d1a50641966
1c134c455b3b
5f2a3a502023
762c260e3b7f
4d3f22593b7f

147f4c37377f
3657771c4f6d
7f4a6e31413e
455e3a212b36
4057345a7f12
157f30521a29
123413725153
2b282650531c
653e2b270756
2d20267f5925
7f2c41487f24
7f2a52203d7f
3d631d277f2d
4e56133d4223
241a5f136222
257f1f5c271e
46546652271e

244a12303f33
2c63134c3144
3a1e0b5f5445
1a213470505a
4a21434c3e2f
15471b52323d
551d1f0d241e
7f7f672b6a14
303015201253
62607f554b4b
4d22601f3733
4309197f615a
1f17626c2c21
075228033a1b
2e5a5a30574a
2d477f2e1326
4c4762331326

144d25343b7b
4a32173a3416
4c7f3d1c562a
55465d353e29
277f0e264f1b
344031380c30
2d4e242d3c1e
2f2a11424267
70582e4c351e
2e2726382360
2e2a517f3336
553e152c6b39
757f1f2f3f1a
6a4339222b38
1f236d2d553b
194714622133
5833144b2133

3615182a4678
325615173a35
477f111c3146
4629211a3b2e
147f0e473d26
59322a2c2c4f
394f1e3b3f24
3c22184d6946
6f56244f5f78
48231d341819
362a677f5122
4e46471a317f
307c212d5035
3d4f504c2846
142321445926
2e451b58202c
1b352215202c

7f1d1d580a38
6950465e2e5a
2336492f4e26
1a501c313663
552d48282844
3f3c69130a1b
3629383b173b
28206e20360e
100d4f4e3728
2d2b2020741b
3b7f141f2c66
2548552a2a1e
48385e722458
34427142654d
7f3d2e582d25
7f16184f7248
602268697248

414c2c3e2804
795a552c2e4c
402d30203767
2c184e2a205a
382d461a3f7f
60254a225a0f
342f7f2a1b39
47224a24141b
371777452223
1d21385b6048
2e43182a6452
1d3506174a55
40365f64256a
491e5a43275e
3d212b503026
702f2763667f
2957655e667f

212c5c1b1018
1f624922163f
241a13630b14
3342717f3e1e
2c1d21562439
0e1a243a141d
7f2221380f0c
2856661d195e
3c45161a5e60
236a55351f2b
342c2b1e1d2c
170e49635816
1415451d1c1b
3c112f3d1325
28532c55247f
2929433f201e
191b5d1d201e

45632b7f5249
560537092120
511e4f234d38
225e1828235d
0b1048094645
67427f6f5458
4c3a5434254e
2631451e592e
11177f6f593c
26211f572d40
5c2f43144962
4545172d357f
0c244301511c
5249683e3a76
5b182e685128
7b4b2d346939
395c24556939

20236415231b
2f2635242519
1b26297f0356
14303f7e1f63
3b214565141d
18332d0e2937
48211c52305c
4b2c16243d71
190c26422638
1c7f5f227547
2f1f22352e1c
1c07375d6434
4427686b2355
463438395332
227f40091161
2d204b3d1720
5724451f1720

5067087f0a21
7f595d401c5e
1b1f46221e49
20134b2b4e7c
122611681f56
74254d315366
25285b392529
211c6b2f4102
141b59442121
472231292741
283d522b267b
242b64202aff
3022671d1729
41023c392d49
42281d361d2d
392c255f7f4a
6139103b7f4a

1b2d21211c4c
3a290e167f1f
5c55621d2510
7f403e1a241c
662b3c1a5e1a
5d4a2a1b6053
237f262a7f3b
20334a7f5157
38231d094c14
1a1f1433451a
4d1b1c49771a
4e5f1730133d
344f14204c58
4b3b663c573c
20325a404237
264a27402d1e
6b6234442d1e

18121f204552
1a125e3a7f12
3d5747211b3c
7f220329562a
194d0b304925
39342459473c
407f2b357f19
2925477f6416
475c33313524
2d2228341a63
3a2b265c6e1b
396c472b364c
7f4504214348
1b340a4e5b2b
1d205d0d4d22
1f50246b1816
202539151816

7f39624b544b
5363224d273d
5430382d6051
1b1068244636
0c2662214370
3144661c3327
39184d462114
2d1a571a5a44
443f3d594237
0c21293f7f7f
4c7f5827396b
4b7f40225e44
582d41514c4c
4f6034794a5b
7f2463164a22
5e3b29087f51
065a715a7f51

187f1b1f6c7f
0e2250585621
7f346a1d1202
385b3c286c52
584c56077f20
307f18371c18
323f233e5771
2030404d3840
736016505e15
1b32217f1347
7f26654b7f33
7f13371e717f
264c2a587f64
5a5041433531
14490b4a7219
187f2b222015
4b444d2a2015

28240f2e392b
2c324c45354f
201a11543844
19223b3d5923
611d43561c15
283e1e1f521a
531a225d3724
7f7f56203a53
1d431d330d63
63627f483617
4c1e5a1c2d23
4249187f5618
131d1259343a
2707454a3d28
237b193a3673
24307f202023
6a67523e2023

48341664100f
694e37322225
191f602b4168
1a4763280056
2c1e18290b7f
6d1442503758
36117f242937
1d21372c072c
163648616c37
401a23105026
21594714234d
073812254618
4028234f1b39
5b2035356665
5d265306153b
410f2a30387f
32331442387f

2f7f25285c7f
2c3447513d55
7f324c340e43
371a51196021
42571c397f12
4f7f2326392a
43460c26594d
2b23103c3c56
597f2b451b73
1931267f1d31
7f2f66557f3a
7f13271e497f
25601a3c7f3b
69503a4d424c
281b733b7618
2d7f205a231e
4f4d152b231e

2d571728453c
1e1b0a441f3c
28144468223f
1f1e387f1f5d
1e264f5b2c25
313c29662c1f
2b0a12302030
7f7f472b5952
2c431c566953
42677f233714
37253f2f2f1f
24224a7f1029
1b2a480f2c28
4a114d302837
1f5c52220d4e
1e1d7f5e1e29
624020291e29

312a581c787f
201e522b3e34
697f52313c31
546029293650
117f5b225f19
226331756234
30492c634536
372e09462471
7f602c390a4a
353e2663572e
4c2b507f3a45
5b2b2b262e6b
497f5043656b
57412c246143
1f2b20626e26
204e18492f2f
3a643d5f2f2f

26421a27647f
372f21355465
4b7f43200e4c
54602d1f6c41
577f3b163221
1c353a4d3b3d
273e1f154b52
31256650355f
78402c4c2c31
241629560b22
4727487f4a21
475c422f1f64
647f493e6143
614c4e2b4e1a
1e333e3f6331
30361b252a2f
296125182a2f

7f1c5f551726
3f2b40202d4f
1e2b07241739
224e5036172a
6827210b205e
1c2e4e101919
2f2b403a2a3c
1f220c210a50
3b504a260854
3a292d255953
167f1d26126f
196f6c114422
1c2c2a1c0f2c
1942396e3e29
7f2f4f154732
661721477a58
541b3b477a58

392e1d592329
53101e522c66
1823201b1f32
25622b2a4765
603423601a7f
70233f0d5146
442f7f221730
322d192a2b63
1f466b755c19
1a201a2a6031
294b4a2a1748
10413317551a
161571212423
470e3e253363
481869674422
740c2d3b517f
69175558517f

1a23402e3f26
3e2849420f37
16200c610950
1d53577f2818
672314601934
57161b4e1934
7a1f184e2029
5b5356193952
1657252a5c67
407462335c61
2e1c0e2a1d31
255c23742728
121c2753165e
4c4c5c152f3b
296b42521d7f
18164a381d22
544546421d22

54426a6d2129
692233310d48
361f1d1d4c43
232e2c26424b
4622572f373c
622d7f152d53
21325744183f
2d2043282058
17107f5e393a
671d2a49236a
564221153b5a
3a504318262d
482c271e3c28
2e46382b5f59
6223295a4a20
7f381e396738
635636536738

3d20421d2b17
392e142d1c21
1c1e437f124b
1056417f1964
11266c602a13
24282b551555
371c20281e51
5f3b50225354
4443255a0d56
4d7f6f3a465c
261a4b1b441f
331a46511f18
313449331559
32334f244615
287f365e1e72
1935491a2314
4f250c132314

592f5e7f111f
4506192a212f
24204028614c
1d35462a4a7e
472852462d4f
342d502d4153
3823611f1b52
49206628643e
37435c4c3c2a
3f28352a726c
3b482234317f
21754d1e3b27
1e384c132c07
29722d344b60
422f234f2e23
504121187f46
141f397f7f46

232f4d27264c
312854097f37
4c4b1d2b1e35
7f685e14602d
2c3b51495b18
3d3b244f2c49
427f234c7f3a
1d1c6c7f095a
3a442a485c39
3f1d1d2e2f19
3322614f7b13
473e21265f4d
7b471e143c64
355564285233
133010424331
354c21591f28
344128111f28

25293c24675c
2f3159187f3f
554a2f253947
7f5227392f24
3458114d5835
263e19615a07
357f34327f2b
242b4d7f3c3b
4f232a275b32
31291c6b3f1f
5b1a57417f24
5438601f3438
41465f3a5a1e
675e1c175c44
1a1561136b28
1b5322662030
245b430e2030

7f344f340e2c
225101612619
0e2b5e303619
243a22215645
4a3361641365
53275b4c4207
1825406e3033
35301c1d2b3e
2a5138442214
5f2a25295073
2f7f0f230a6b
274a58231215
192a3d12224f
0a2d586a4c2a
7f193f321e23
5c3527416362
5c4639516362

1a79272f6a73
3726482f5a65
7f221c225117
46691923133e
684c39277f1a
1773274e155f
393132415447
2f242c453648
493115445c62
4d3116793d16
732613427928
735f6b1c4379
2b573b387356
1e623515574d
232c2b427518
327f215a3619
3527343c3619

293e372a4c1c
32283642214b
20223f641b4f
204b3054702b
15230e501c23
3f291b613620
6e3b0e412138
7f7f1c2e312d
1f3d19372453
36697f1f670e
191a4011192d
1d3b647f264b
2c31261d2362
53345e1f3a17
2576432a3f62
142f7f0f1b1a
283249131b1a

4c3e4a643138
6b4e5c3b2149
33293b23386b
235b301c4211
15196a1e347f
463445122b37
241f7f5b3513
3a14581a1b18
22404c533b09
65182633204e
3d492a31483c
3413562a4e4c
1a1a483f3559
3634473a5a2e
642665061c1d
5e471e5c3e7f
084e58223e7f

287f473c4a7f
3d45446a3f54
7f323e366254
3c3130206019
2d58445c7f15
537f23273e5b
3a4f1a494c45
2f3559436540
6850214f3441
4222387f4b2f
7f1722537f2b
7f2a3b30197f
47641b1f7f4a
33385e1a133c
202c5e5d6018
297f2f262126
340f601e2126

360915294114
321450162e30
2b17075d374b
2a156e73251d
2d0e5d621f1d
183e195e411e
46241668281a
7f7f151f5445
1413225b4624
395f7f222e24
25234b1e1d21
16265e7f1f1d
392127201f24
35723235103a
3263360f3b4a
22307f0f2a26
3c5331162a26

2175171d307f
0b4a5e164641
4e7f2a275031
48263224372e
647f12156315
15553321514d
2566281f3f41
2820414c5c18
7737285d3838
6a2f20474f4f
571a6d7f4d29
5f3f5b235b57
5f7f4b605c46
2a74464c4e2b
222f0b354724
186419232c1d
4211161b2c1d

244054233a7f
270e34233c0e
4e7f41265d38
443441224412
4a7f3b20501e
134d2a12201a
1d561d2c4b62
2a216a47311c
66633d246355
1d2327613825
5c187a7b5426
5649431f503e
267f4f445e3f
6e5d19313040
172b23615d2d
344725531a27
524f17311a27

7f2556481f2b
4b673918266c
2c216830201a
191e1b390932
1521174d2346
163360271a60
4c273d6f202c
192c6f196255
3c1956723749
162816272945
227f12252a6c
311d30162152
392d1c05224b
3d514c7f2436
7f34175b2425
643b13597346
435c1d577346

537367425245
70304a3c333d
43284a166334
29563538623b
631e4a13397f
4a534f156c38
2e2e7f502256
3a2814311f12
333577222e0c
061f24314522
354d1c1f353f
41470f24183e
1f2163633a43
353b6039175c
3e1a75604230
5a4d2315557f
303d6544557f

0543212c3519
365351363220
2621245e485d
2a2a5e7f284f
5f111e35271c
242e205f6456
7f18180b1629
61506413265a
3d131a542735
6569653d1666
1c251e211823
1d694e672c1e
4314083b3346
1b6519170d17
255e1b1d437f
182843552c1d
585751272c1d

5769507a1172
3f4c24631b4d
591715363266
281850294d37
68291d58654e
38637f333753
3b2e4d652909
3b263227372a
21327f4a3414
07311a5d2e55
7d3e45287574
6c2f11255173
4f195f4c5f44
646d51464143
5b290c422b26
73671f227130
4b5922437130

31046415322b
212a2f0e235e
3b24207f3a5c
141f5f7f2e52
22161b62361f
2d2725325b16
560a23513112
5d38571f4656
1b4525204629
187f714a6f10
3e146036252e
3f293062111d
48162c0b2759
1327440c3127
1e7f58254a50
32364c5e1317
49520f3d1317

54385d7f3d30
53205c57151c
1815441b4b67
1e3844454d4d
211b464a1338
6c0f466c575b
3637576c170d
24293c282917
304e58666d30
2a21300e5072
324d1f37227c
226b492d641c
4817274d2135
3e564c337272
521f6d0e082f
4d2d24587f30
0d6b18597f30

252b41183848
26172e327f62
545a5d285e16
7f702d1b0f4e
5f486339670f
624f2a2e151f
3e7f1c757f69
21320d7f303c
3a5322344b1b
111f1455392b
3e2a3b507f38
58273124664f
494d4c144247
661b3a281e19
1c3128261c3b
2d392c682027
48161c332027

2a66530f3c51
3d292d3c7f4e
565613255a2d
7f64242e3519
155768415b36
2158156f1f49
497f31317f59
2913267f0e45
536718210c09
472b31460f2e
4d201a4e7f21
3f4f301d4351
674148185963
3d1451140e45
1b182d45322b
2b641b4a1131
605411241131

7f333b422745
375b2e172c59
3f13272b211f
29081f25487b
4b26611b346f
48195c581f5e
2e1948271b46
172e2b262c39
304a392a4f17
212a213d274a
2b7f2f27335a
4d4f2433503a
44190b222051
28522e7d1b49
7f2243133e23
462b45467e51
634b26657e51

1a7e3a24687e
34735c5c5b37
7e3575291021
545e3c343124
563e230e7e1d
517e233b5b3c
394a2143595f
4029523f4b2c
524b1124224d
71281b7e303c
7e2225457e1f
7e601d24747e
6b501d467e6a
386005330a20
222263503614
187e2a5b1d2a
3c2b40291d2a

2924453a2839
275e2d2b2008
291c375d1256
2d2638405c25
51231e4f292d
1f2c2c070611
5f340b442316
7f7f7029182d
130b22061215
315a7f386442
39245711251f
371c267f0d30
29301858341f
0e2b4b535e28
217344454761
40367f091713
4e544b311713

592c58583e3b
7a621c2a0e2e
362d2f256155
184b3f19044c
10352713337f
51533555405d
56137f222036
271b0e1e1829
1e193f246433
161f22494b6a
444d15233147
3a535127525f
481a131e384a
1f5a455a695f
5b27771c0d21
784e2e5d387f
2515392a387f

317955305f72
2945663e4b16
723a4826205b
39244e255714
5f472e64720a
567231441063
33311e1b4c23
17265f362844
6c5a285d0518
0f1f20794022
721d534a7934
72301d236179
496a4665723b
2f27073f3e1f
211232556925
277226702123
623a1a232123

220946253317
363d5d303239
231102621546
1d02397f421a
4330481f1e2a
5b2c1f4e493d
5b19271e2532
7f7f3628125b
1a5018311c27
446e7f353c58
1917361b2a16
1853087f372c
3413255d1a4e
201e6a424030
2c6856410c5b
29127f231822
6e39330a1822

1b6939214079
3c7045514023
4a7f5d18343b
68651531593f
717f13454e1c
474522152b74
276331114265
3726335a6041
732c21386848
4326263b3b44
322c7f7f3e2f
495e3028714a
6b7f63383860
5d66292d422b
2d3a5f593b17
0e4d1b501c14
1e1b32291c14

2e7b23255b7f
153424624e69
587f3a1d4d21
40583b28481f
267f1f4f5420
5d452d2b4009
3d4326173e4f
3a1c494f536d
441d231e2b46
74181367435c
5e29537e6d31
542961154339
666f4b2a6f4e
700e54424a3d
1a3047736230
184920342a2a
425853222a2a

7f575c440b30
4c113b551d6b
282137283d1c
1f6654365022
0b2213213344
482e4b10224b
47223a341e40
173531196d49
362657136850
5620172a416e
227f471f1e56
2716491f244b
4a2235612b1b
5d26407f5d47
7f2a543b582b
583d1f286648
303823336648

400e14445845
3c4b3e1f1c25
352113281849
23432a170d21
1e296d263b7f
47284e1b1061
1b277f540f5b
212b63261955
425474352256
2d2e28304961
42414d12285b
311a5b300f57
3232303f2d3e
5c43634d512e
4d23244c3c25
5e35312c747f
522c1840747f

0e2d382b3d3b
125143201b08
302557705c3c
2c275b7f3e4a
632015533f28
355031434560
7f212a45241d
5b493e106529
09151e234802
1f795a3c3d68
411c0a1e0a2f
2c0d23651509
0926286a335d
210d521f2f2f
276239154b7f
1b4e43532323
642f25422323

603721742423
365c5d352659
1d203d1c433c
253e13291f25
6125606f2639
4c1a7f620e1e
433463512d45
31243e27593b
21217f1a5141
66241f382922
352a52232a47
2e5b1c250339
381917661d4f
0c305f446a67
5d2824325020
7a1422415f3e
5d2b66495f3e

284b60294623
261345581e35
17185b7f114f
220b2479435a
3e1760511330
4b3125513478
3d2e19282815
58345e214538
163a255a1465
1d7f7f285722
211f48241e2f
1463665c171f
241929771d4e
192738471e13
0f7f38223971
27215c3a231f
735a5c44231f

4f282b7f381e
52374955312f
2f1d1c1d4f58
262e1c2f253f
502726722d4a
201a470e660a
25214c75172f
20265e1e5f10
4127486f4910
1e1d35395e4d
45533a311c7a
32566f211b4d
502c1a201c44
5a2526435472
4e29536d0f1c
383925107f4c
5b3d21787f4c

194c1c216457
2a425c177f61
3a65213f5f57
7f2f30243d0b
544821384717
083825195e0e
2d7f2a3f7f2a
2e1c727f1912
4a1d20093776
61332d4c6624
362256567f1f
4b54361e4047
5b371d22433b
2f1d2e194c26
23336e512d3b
22352948221a
2963423c221a

1c1812392d53
4e3f46157f66
4d446c291929
7f4f212c1048
5e4a2b685247
4151174b2847
297f282b7f76
1f24117f661b
60522850221f
3622194f161a
4b27445b7f1e
4d4a2128373e
6233605b4850
485828335326
1716436b602d
2e4017662a20
211666362a20

7f404b49223a
57145b3f3466
3e245b2c614d
1a171f293248
0b21573a355e
553a625d710f
1a15401e1b55
4a251f214c66
2e454b493a11
42361f3c3e7f
587f1c30365f
43446725063e
472c5a4c462e
0b4a2e7f7445
7f1c6f532e1e
714532597f3f
625a677e7f3f

15751722687f
1c246b7a5951
7f244c165b41
4f782b286940
744a27167f30
2c7f29726238
262f18175262
1d1b28441467
41381c1e5b59
292b1f754a19
7f1d525b7520
7f1e33185f75
474410547f7d
7d4b34142e39
2a2b3f752c1d
3d7f202b1b25
215933371b25

352b36274d13
34575753271a
2914226a4c1a
22354f53183c
4a1f3f342223
293d2f211d1f
4e21271c2c41
7f7f541b414d
2a072540230c
4f7f7f422414
3c1a3819332e
2d1e427f271b
0c2e1c632952
2e104f171e44
1f6a0c37556c
2c257f47201e
6640320f201e

5f2b565b5122
5463241e2931
172446225850
184b6c1f3333
302d5a261e7f
171f485a0663
451a7f311b28
1e254c1d1f39
1e184d36411d
6f1d1a262e21
174c42293031
294e5a1f0d14
423740142e13
55121936175b
6a2b5f6b4121
6d2d2414387f
5b1e3c55387f

227f23353f7f
336f3f673b61
7f4469226049
3b3f1c272014
354e154f7f11
367f1f520871
1d441d686072
3226423d4358
4f39293a6364
201d1c7f3214
7f174b527f13
7f544224497f
315c0d6a7f1f
321b4d501738
1a1b1d745128
1a7f256e1b1a
255a44151b1a

1c4f4c271f19
2049585d2818
2c2730734c0d
28331e6c3820
0f2265184028
33271a64282b
5b1b21271a4f
7f7f0e305b0a
3c3114560c07
45767f252e26
3b1c67252533
234e3c7f5b21
351558531e16
155158243e25
216d112c1b4e
1d2e7f2d3325
3d301e2e3325

2e3d5727797f
30152c2c2d15
6b7f71313165
584f50265739
397f2e1e7015
177a26444e75
2b5e2d4d3d43
3a2929402569
7f3345343027
432e3b692b20
5e23447f641b
712f5420437f
5d7f66306e1b
4a5a3a3e4c3e
222f491d702f
1b5524501b22
354369301b22

29761a1e597a
4a4d52355a2a
457f5d302134
52295326323a
6f7f58163821
4550345f3238
2647191d4d54
0f23255a0f31
7f58463a6237
622b21464b52
30273f7f5b2b
35262911204d
407f1a374939
462c1d334644
16353a6d5231
2f3b1f3b262b
56661f0e262b

7f28195b2a2c
4c2f4d5a2a17
192c5b32420b
21191f220c3c
332c381d3053
0c345b521051
331b4c1a252f
162927152021
1e344d386745
65321c291e32
1b7f051c1d68
232d461b3e3d
182a4e3f2403
161a617f5831
7f2e0e602c30
5d2e234d6f4c
4c1709496f4c

502342455023
6c12213b1926
20274a175749
194b692f445d
4a1c5048397f
681d3e6c4038
33187f0e193d
2e2a4521216b
28086a1f253c
5325361e0760
22504332235d
19475f202935
432a6f201d06
6236575c284a
362733364e2b
662b2951637f
244b3734637f

1621172c1814
2e70113b2038
1a173b5e5533
2b4d227f5019
121e6450141d
191b1a594a3c
7a3616602347
475c1b211738
2e551a5a544d
696647312152
20180f1c1833
150e4a5f2b25
4d0f64440c08
335520195634
0f6068654b7f
2929424d291c
4a383f12291c

4f334b555d0e
552f3a501a26
1a2542242b65
201827325c6c
2a1739531340
66177f363b0c
4a294b4b230b
1b162e1e2316
29257f181d3b
5620221d2b25
3629191b255c
14514e1f4f1c
37254d6c1919
244c685e5d79
541605113f23
5f2d182a4f3e
4a5b435b4f3e

277055154936
1f6c323b1329
3c212e7f6423
172038734f54
1c1a3c573f21
4b472f1a2049
38191d1c2717
6b3732302107
100b22511d63
387f75605751
3c18601e3439
4a29684f2e40
1c226238424c
3a09564f2021
257f2d2d3f68
2454545d201a
4c424915201a

567f127f4d3b
4927534d106a
3c2420332618
12325442677f
4c3376532f3b
65443b0c3218
14144b7f161d
2f1c3d1a3b31
20425f28515e
611e36323c35
465e4a3c376c
3a7637294344
24276b4b453b
4f594236387a
3b1e17261a30
4c4423037f38
12181d527f38

250d2527634a
242a16447f3f
44566f367025
7f681b186728
6d3938374610
5f3b32797719
177f21687f1d
3c1b367f0f6e
443b1f3c525d
4b2319331744
311c42447f3b
4e3b48263d32
71454b612b5a
3d1c3b2f2234
153010296038
1c4a223e2a20
60475e3a2a20

2941502c235d
1d3955707f5d
525a6635330e
7f0e6431481e
71444d505a33
49621d284e3f
267f2e2a7f42
2428367f4d5b
77281913334a
41231c442a1a
451924517f33
4f5636293d57
7f453b325365
0c6a41184e28
181c18296f2f
276c1f24231d
3e382857231d

7f416a424a19
361b403f2c2b
2227632d6b19
2c222027274b
4f21121a1f6a
231b79185447
362a524e2513
221f2e210f47
2a363d3b590c
142f31266256
307f371f3841
2c4733175a51
3d392047225c
4b1e2b764740
7f225f284e2f
4d23255c7945
1409215d7945

137f0f156c7f
20593f3a4c2f
7f21521b3e38
504454237848
2a55391f7f25
317f23521c0c
3e2f29445169
21241b3c695e
5f6e2210576c
6f2b0e7f5c15
7f11334b7f1f
7f3d0d1f217f
2e7310197f18
2f58402c3937
123656722124
147f25692216
69372c2a2216

1c395f365125
345c3d1a350d
171616591429
281a3b43693c
582325061b22
292b2d334b28
52311f1c2c5f
7f7f55321517
21172d4f4153
3c587f325e23
301c0c24152c
2d3a517f3518
173116481a52
4b2e3038115b
286a4f4a595e
2d157f652022
0536351c2022

4f381c6d3623
553c12181a42
2410331d2c41
25226b20651f
622928552a7f
731a493e2235
47177f21190f
3a263a264c4e
201d534e532c
60182f2c5145
235c43421b35
1f29661f4441
491b2a623a3f
52133442423f
662a3d751335
5b2f2e633e7f
6a4a37693e7f

1d7f4124427f
09315c374169
7f4613360d47
321e631c340d
2c56405c7f21
1f7f2b3c121c
284b2227656a
25205a3f2e4e
27371d554c56
252b2a7f3719
7f2624397f32
7f1c6a22737f
2741423f7f6d
606f144c0e38
28304b2b541b
1d7f1c241720
5b1e3b121720

25431c332a1d
4f103f642e1d
1d1b1a742e26
230d217f2c28
372c2a6d1123
381a222d3c58
331e0e2f3047
7f7f48294b63
44251a3e5536
10687f103349
131d2a22251c
1130647f121c
2123295e1918
1765420e4311
1763151b424d
2b247f42211e
6352162f211e

1b603f34427f
396e0b453065
697f4f24244b
4d2c64330f52
507f70405f12
2a6a34274c1e
0f582f294422
442251565f5a
7f242b567675
3e39325c490f
4b2d7f7f6740
690f292f1e67
6c73704a4066
40442723251f
203437232626
266219251d28
244971241d28

2d39413c4c7f
3e324e574428
6e7f2a2a253b
395e561d3d1c
2f7f410f581d
615826685416
4c45275e481d
43212b4e4373
7f6634185a40
68201a582e6b
60215d7f6536
712e3719207b
357f4e697752
4d451d154d45
1c2930535322
307a19442832
4c34254d2832

7f1f1f511b1b
6a1d24562826
281f2528122e
13570f234542
0a2c49133857
572c5912321e
422a4634223c
19312621441d
411c435d3e51
312b2334201f
257f162a1c58
1a3932230b20
3629455b1932
15093b6b6a43
7f37443e3826
703224286748
1b2e364d6748

46320f414029
6f322123265a
143316250a1c
2662602e4a1b
4d2148491d7f
381e46404d2f
421e7f2d221d
2f25291d6913
3225725b2238
6c243c10385a
26355a25314d
12300d1a5719
392271131e37
262a19513261
3e1f0b10572f
5b241e384e7f
186d43374e7f

173950402e27
1c44081c221f
27180b59403d
22385b7f1a12
421c282f2a21
541c3a47182d
7f2719592033
265c67390b09
152f2809571d
286446400636
221544213529
133d66654f3d
53166a102538
582a23480d2b
25532d07147f
3930421e2623
646c1d462623

5d4a335e542f
560a125a262d
31292022306a
1c571b2b0e38
642649612f4c
49257f0f4515
3f1d4d261d2c
3422671e512d
352b7f4b3a0a
1c1d2f26261f
3136242c186b
3a714027462c
2033324f1534
0f0e59726162
60233f1c2a2b
79251c1a5438
3a15285f5438

21636d185133
2a273f352a4a
48162e7f1f22
1641516e3935
450f361a4f24
15522e195073
3e282c462942
582f591e5710
0d5a1c162e37
1a7f76421023
49265c25592b
53686850246c
522160744128
36564e2e1a48
1f7f3e32486d
2d3e4518210f
2d451b0b210f

4f204f7f521f
633f472a2144
1838591e1145
216261311e57
51366b352261
473d423e6169
362b5b5a2128
341e211c412d
31135c72380a
241a2710236c
303f2838117a
20201f130f2d
523029472b59
47353d524548
4e2e1f144729
591d1d3f7f48
1765427f7f48

1628392c325f
3d3a291c7f22
465d57356821
7f453b1a355b
4f3f5c4b6712
415c2d50277f
3e7f20377f3c
3624637f2b60
4b741f4a6538
5a302437041b
372c73427f21
5343712d4f4b
703e600f4a43
6d5f5d383454
1b2060247b44
1e4427471530
1f0b66241530

1b3a3b1e444c
2c3d49337f19
45535b273d39
7f3515314b56
535e4450491f
39391a551718
297f241a7f24
2f26437f292d
4e4122575b3e
1c14293d3821
39221f597f2c
491d15223652
293f64534961
686b601f423d
1d13256b553c
37391f3a302e
37351141302e

7f36463e1313
57165c3c394b
16235625231d
2f104a1d1f64
2b253f341668
2b0460645127
2e1c594b2237
171c42371941
30313a6c6d30
51202d1a4d3d
167f4132166f
1b4676114d15
361e653d220a
515514524553
7f1b6c413420
440122597f4d
3a622e667f4d

0d7f2113317f
1a6c305e3a37
7f2370271929
3c473c3a6a48
36454b617f1f
497f0e464025
3b2f200c5c39
1b215c37585b
3e2419352366
57351b7f4f4b
7f1f343f7f1d
7f115b1b537f
3850156c7f60
3c27333b2338
1e333c562618
167f202a291c
6f3f6d2e291c

2328162d301d
142153091e58
28293b592a24
213c69454c17
1f2d32632c23
5c251e583f74
78201f413059
7f7f292d605c
2a172e155733
47777f402a38
231f2524331f
3f2f367f5015
1934315c1b6b
282363472b1c
157721354569
243c7f1d1d20
6f3d4c2a1d20

413051622525
43123b231547
252136253228
215036193114
632a73332a7f
513b453f294f
38217f53232f
3124111a5b4b
101457225363
4525252d2459
215d291a1845
196126313134
3829306e261a
4b2d3a2f5d34
6c206d661322
6f2b21553f7f
2b324a6b3f7f

307061207669
39664b704931
693a3032345f
3a45501f3941
4e450d29690d
3369205e2464
2e4022354d57
2122323f5747
477d29214660
4b2f34702532
6921404c7026
6972161c5a70
485643596923
2b713f286627
1d1567325c1c
2e6935632315
3633334e2315

2136512a4324
18261018335d
211644623463
2747177f4c67
3929256f161a
4b2721534222
561a1a322858
7f7f6816241c
31451a193863
355b7f2e5643
342d40213229
2b5c6d7f0f20
1d36401b212b
42115b0e3534
276c32173d50
22237f18242b
342e211e242b

1c78411f727f
403c36513d47
587f612b2410
3f464c2e174b
1a7f191f5912
235f1e403c15
414e2f423937
1a23524b660d
7f692b473572
40322858624c
50166b7f5c1c
543c05294a41
3e6e3f175921
171904484b1d
15331a5a442a
2069190d2119
1a0541292119

2861131d3d7f
414c32734651
4b7f4920655d
3a4c54164a12
317f6d4e5620
2a623914460c
414b18215343
1725335b5b3e
763c200c3334
752328446948
3b256b7f472d
5c4d471a4344
407f38425c64
431704451f0b
2a1d51317036
2e401e4d191e
5a55441b191e

7f5e2863122c
44625320231d
252756384a40
213b5d362126
2421203a3258
6b3b651c3640
19263d2b2758
202818142215
201c5a225536
662a33233a24
277f11282159
25291e155b29
2d1d2c042a3d
281d3a791f5b
7f3c3e1b3632
614911475243
230e1e435243

3e612e46171f
67353e211f66
3e20372b0938
2a3b5529163b
1e275e454f7f
5f1942456165
3a2a7f35251d
281b2a2a2457
4722652d423b
16254a41681e
44481d250e4e
475e1d2e4535
433364412217
13391c4c3a67
431c56612f26
7710255b577f
37535c41577f

14264b1f1b24
174645270c2d
361857574156
2a12467f1d19
6b261c533726
2621222f4064
7f212f73152b
4c5a38296712
172221224411
49705737483a
371e391e1021
1f426859443b
2f1b5d1c200e
2e64550e4111
12632c11247f
23244b503725
6542643d3725

593c1c6c2f25
5d091a0f3564
28125223282d
32640f23521f
151c3948273f
0d2a7f1e2435
322d3f652942
1f383b24452f
302e7f1e492a
2f22232e291c
163f10213161
352c0624164c
23285e252839
303614277856
541f1951342b
7e382f535f37
545214465f37

2c62411a2718
2f25164b2305
2b29197f3930
0d4e617d484e
622161432722
3a392c154113
42261957190c
413939283d31
253820285f5f
047f7f2b661a
362b19381c1d
2c5818562c2e
082843332c1c
182e0a371529
1e7f1b47496e
2c2e530f2913
55254d272913

52423d7f1020
6a56044b1c1a
152e5329646c
32173a3a304f
5328554e1f42
582d59555b3f
392356772122
2b1e14187206
1714516f6908
3d25222b455d
2e3628341c7f
1d5761234f51
4a241c05182c
400a12216b72
46195d232f37
51221c227f44
62071c5c7f44

25604828673b
2631695f7f21
4c5e11355823
7f2e1c255c30
682926566619
10572c1d4c4e
237f24337f4d
2f26377f1f4f
4d5e1e324016
642813360752
4b2a4a457f1b
5d5c1129643f
6931294b391c
0f5b51133a44
1a34481b5633
135d1e471c28
494f331f1c28

10251a2e3259
1c35165a7f57
6a4916294e29
7f6d0a224236
4b510d427824
535f22532a34
2a7f2f527f2b
1d3d107f3c6e
37632b23465f
7126196b5944
6d23534b7f39
672242271c7f
3b562b385a62
50661e260b40
27196348471b
246a2b431714
3b5d29231714

7f266644101e
39173c4e272d
1e2e5c26295f
2d16502f5d79
562b441d1473
3a245d201c37
361b40631731
393a1e204c33
221d42506626
3d2f352e174c
207f2023276f
191f72223d46
14220d731e2c
272b557a6838
7f245415412e
64253b5d7c5b
296c66757c5b

1b7960295277
17212845494f
7723592b4617
496127196060
60384c397724
267720152b1d
314a1c10533e
2722503c1568
343818104740
3c3721791d42
7729453d7922
77442a222479
5f68450b7779
2f594835193b
2724236b3317
1c772731311c
1c191e1b311c

1c340c2e381d
4917392e3f54
25252d674e2e
1835143e6741
2d1e2b1e2929
0a3e1c21614c
52312e4b2c42
6f7f6b285423
221b31403619
3d707f425e2e
25180e1f2325
4347217f323d
42326123244e
45261e171622
1c6c253b137e
2f287f212521
46271e342521

3c2a365f3532
6e4060181a66
1d223d3e2c1b
1a325f2f453d
47206c1b197f
62324f682b60
3c177f201f1c
3e2022302142
23135d1e470a
552f35171116
265050332048
25310c24172c
311e44072f17
3839495f423c
602c68414a25
69122d124b7f
3e3c40594b7f

1d7f6020517f
3e6644274b2c
7f4040263a50
4d35381d7924
4b4c433b7f19
447f1f530946
1b3c1e2f4f62
172c073e373e
433b28221531
1a2b267f2e59
7f2c425b7f0d
7f3a5b20697f
685649117f6b
347b5341331f
1c1e56525c1d
2a7f27262117
1d451d3b2117

1c1b412f301f
1d3b253d2619
221f2a6e011e
2b0a387f2157
482423232d30
2c192d244c4c
382c21001908
7f7f3f115018
261b1734554f
0c657f336c0d
19234c16171a
213f157f2b1a
483650051313
272356381b46
1c6743132252
2c187f402a27
1933302a2a27

1f5e472d527f
1d2a50594a2b
5e7f43311566
53264b306b4c
1e7f41215d1d
585c251b0f2e
4b532a1c492c
391c36544e6d
75573342104a
113629422652
32286a7f492c
593a4d2e4c55
3d7f34764e59
3f232d152e39
1b34163b3831
1b4f17522433
3f5726282433

322e5c2b3d75
1824615d466d
467f382f3426
3d583f222031
597f100a3e1f
573e2e150d69
354735504235
491524594173
6e3e2a585620
432b2b312758
462a707f4e26
5f072f0e4429
5d7f56085013
655a17252a1d
17271360492b
2a49212a1930
1444071b1930

7f703e562671
632a282c2b4e
71120d246a22
1f3b36303915
182b422e7359
0766563a0c42
203f451b2939
222165245352
373656492308
3f1d225b2358
6b7f431a7755
61182d1e3f7f
11135409601a
5a69467f2a3d
7f2532453c28
795a194f6b5c
090d093f6b5c

4f5d494e5924
63606960290f
1d25522c6441
164a18284853
25202e40247f
462d476d6b0b
2e307f3c1c50
2b3216384e09
1b2676466249
142a31363d42
204318354057
2527112b4218
102e2b6a2730
4370113c4171
4b296d442d35
593c2839547f
0a473d55547f

182c5220051e
31532c603703
27233b5e1940
26153a7f384d
2f2245121b14
1227224c4428
770a165d245f
46512022253e
1635163e4556
2f723d1d3349
2b2444142033
106e5362281d
23275c361e65
2e491b3d3128
20586c30387f
2122425d1c1d
4468191e1c1d

577f546d4249
536657691e68
5b3264225b4d
1e222c260638
33122749543d
3b6a7f221643
36175e59182b
1b1f0e1e1947
26597f622c42
36212657232e
493651175a61
562f61245f7c
2f325f2c5a35
57063a4e6a47
60211811252a
74521f646d3f
15335b5a6d3f

28515e1d2011
2511263a1a2b
1c294f7f6238
113b5170151e
3f2242411c21
10361d655134
4b281b4f2250
5c3544323055
2b521f071227
467f76301033
201555281c2e
2e17586a2124
121f5c0e1e48
0d1c48113617
237f23561160
123350592711
3e22483f2711

582a147f5227
73255214135e
2623462f4a2f
1c1f29465352
47233d2d2b3f
274c48204d1d
2a275f7d2012
132625251f5f
362847702929
291f293c332e
2853232b2e68
2b484425553a
470b5c442c2a
3f27344b516e
3d3951572c36
424415137f47
0d68597f7f47

2a143329614e
3e33162b7f65
375b122e3641
7f583818094f
633a20194618
113f28654e54
1d7f1d1d7f4f
33311f7f1b29
4d422b1b070e
5f1b273c1a5d
31221f357f30
443e36214014
2a251c363626
4c14662c1a0c
1d3e21631244
103e34451f1f
135e232c1f1f

1f3e58313156
10386b5e7f50
4e53651a1363
7f664c18362a
28412f266433
293725544a6b
3c7f25257f4d
1922207f531f
5c7321232f46
28201b455721
4a2040437f30
397164284042
422a171a5558
66754f4d1a47
0e1c6768512d
13421a22221d
3f274224221d

